the 78393
to 47367
of 45374
a 42051
and 39054
in 30574
that 28978
I 26276
is 25491
you 21461
And 19323
we 16801
s 15999
it 15378
. 15264
, 15177
this 14627
-- 13493
ing 12424
ed 12216
on 11876
was 11270
are 10898
have 10376
for 10315
es 10236
re@@ 8953
with 8930
at 8575
y 8446
an 8387
s@@ 8336
they 8196
s, 8134
about 8114
what 7923
be 7918
as 7881
can 7729
s. 7681
e@@ 7470
all 7343
al 7274
in@@ 7199
y@@ 7168
one 6954
d@@ 6952
-@@ 6909
e. 6875
t 6819
f@@ 6741
e, 6692
not 6585
or 6559
h@@ 6517
b@@ 6334
do 6214
de@@ 6144
g@@ 5885
it's 5804
c@@ 5783
So 5750
a@@ 5737
from 5697
er 5620
"@@ 5590
w@@ 5568
t@@ 5530
like 5514
so 5502
e 5499
my 5486
st@@ 5297
very 5243
l@@ 5242
just 5237
but 5094
ar@@ 4935
people 4921
i@@ 4914
p@@ 4830
S@@ 4808
going 4806
if 4792
? 4786
it@@ 4753
But 4741
y. 4729
The 4721
k@@ 4710
y, 4691
these 4675
our 4649
n@@ 4587
es, 4535
un@@ 4504
es. 4421
out 4413
by 4268
which 4177
al@@ 4155
: 4150
o@@ 4122
because 4074
ex@@ 4049
get 4039
m@@ 4029
there 3975
had 3972
en@@ 3964
up 3938
We 3936
at@@ 3917
th@@ 3898
when 3897
d 3888
u@@ 3884
This 3798
er@@ 3786
think 3782
ac@@ 3780
would 3708
an@@ 3694
how 3694
sh@@ 3684
r@@ 3667
really 3661
I'm 3650
your 3631
see 3617
M@@ 3607
on@@ 3560
It's 3549
se@@ 3542
more 3537
he 3523
B@@ 3514
ation 3509
ch@@ 3500
ly 3422
were 3397
ic@@ 3374
their 3316
has 3316
ro@@ 3296
who 3288
A@@ 3260
." 3233
di@@ 3228
con@@ 3194
el@@ 3184
ate 3180
some 3176
me 3174
You 3158
ab@@ 3145
where 3138
that's 3135
don't 3124
then 3121
into 3099
d, 3057
C@@ 3033
T@@ 2982
or@@ 2944
be@@ 2929
will 2923
them 2910
It 2902
actually 2881
m 2872
H@@ 2863
k 2856
♫ 2830
as@@ 2822
ing, 2816
So, 2801
ent 2795
co@@ 2795
si@@ 2792
pl@@ 2780
d. 2776
ag@@ 2729
know 2724
go 2718
want 2701
lo@@ 2686
us 2674
am@@ 2674
z@@ 2633
ing. 2621
make 2620
could 2613
mo@@ 2609
ad@@ 2605
been 2592
it. 2590
's 2584
et@@ 2577
es@@ 2573
ri@@ 2567
li@@ 2563
things 2496
got 2482
other 2467
do@@ 2458
ne@@ 2455
D@@ 2439
le@@ 2415
O@@ 2411
little 2384
ts 2368
R@@ 2364
L@@ 2355
P@@ 2347
ally 2340
G@@ 2325
way 2323
able 2301
mi@@ 2297
ec@@ 2287
for@@ 2287
ity 2283
se 2276
W@@ 2276
ph@@ 2271
h 2267
to@@ 2260
kind 2237
know, 2205
ra@@ 2202
than 2199
E@@ 2189
us@@ 2189
something 2187
ing@@ 2180
n 2180
ers 2159
N@@ 2115
ap@@ 2108
ul@@ 2107
They 2107
t. 2102
ds 2093
em@@ 2092
v@@ 2091
F@@ 2084
ol@@ 2083
ent@@ 2070
ma@@ 2070
those 2067
we're 2057
look 2050
il@@ 2046
pro@@ 2043
first 2027
p 2024
ar 2015
two 2013
years 2009
is@@ 2007
le 2004
thing 1986
; 1970
t, 1962
here 1961
no 1956
gi@@ 1944
ter@@ 1942
ed. 1921
no@@ 1914
now 1903
time 1900
only 1899
1@@ 1892
said, 1872
ou@@ 1863
over 1860
lot 1857
ic 1857
wh@@ 1850
his 1847
ur@@ 1824
also 1821
im@@ 1809
much 1804
ed, 1804
x@@ 1799
age 1790
est 1790
et 1778
you're 1777
most 1773
ous 1766
l 1761
back 1758
ical 1758
take 1754
Now, 1749
ve 1719
tion 1711
world 1707
come 1702
bl@@ 1701
In 1700
per@@ 1690
su@@ 1683
any 1681
a, 1679
What 1677
it, 1666
put 1665
ght 1657
er, 1655
need 1644
str@@ 1639
we@@ 1637
ting 1631
there's 1622
ver@@ 1615
ti@@ 1610
en 1610
bo@@ 1608
many 1603
right 1602
fi@@ 1595
car@@ 1594
even 1586
K@@ 1584
me@@ 1584
gh@@ 1581
tr@@ 1577
new 1574
tu@@ 1562
pi@@ 1559
did 1557
she 1553
man@@ 1546
ot@@ 1544
po@@ 1540
c 1525
ely 1522
pa@@ 1513
sol@@ 1513
around 1511
ll@@ 1509
er. 1504
If 1501
ed@@ 1498
ks 1494
work 1494
ta@@ 1490
pe@@ 1474
th 1473
J@@ 1466
every 1464
k, 1463
g 1458
being 1450
cre@@ 1444
gu@@ 1442
its 1441
different 1431
ated 1430
j@@ 1430
same 1428
ut@@ 1422
good 1422
they're 1422
de 1421
par@@ 1417
through 1411
sur@@ 1408
est@@ 1399
use 1395
min@@ 1389
sa@@ 1385
la@@ 1382
ded 1374
all@@ 1365
inter@@ 1357
vi@@ 1353
op@@ 1348
a. 1347
w 1346
called 1343
om@@ 1341
doing 1337
down 1328
I@@ 1317
av@@ 1313
That's 1313
ad 1311
is, 1292
I've 1291
k. 1289
war@@ 1288
tra@@ 1271
ence 1270
com@@ 1265
made 1265
o 1263
ant@@ 1262
wor@@ 1259
wa@@ 1242
ever 1239
ice 1234
ine 1232
2@@ 1225
Ch@@ 1222
that, 1221
three 1212
king 1204
sp@@ 1204
ted 1202
pre@@ 1201
qu@@ 1191
He 1188
gra@@ 1187
say 1185
gro@@ 1177
ment 1174
bi@@ 1168
so@@ 1163
ther@@ 1156
wi@@ 1155
?" 1154
ther 1153
ating 1150
mon@@ 1149
ation. 1146
ch 1143
ally, 1143
There 1142
her 1142
dis@@ 1142
ca@@ 1134
ary 1132
ci@@ 1123
human 1123
mor@@ 1122
te@@ 1121
Well, 1119
last 1118
fe@@ 1107
3@@ 1106
talk 1106
ation, 1106
went 1105
sort 1105
tell 1103
ning 1094
why 1094
ali@@ 1094
ble 1093
sion 1093
enti@@ 1093
Wh@@ 1092
fin@@ 1081
ding 1077
ying 1077
ant 1076
go@@ 1076
didn't 1075
our@@ 1074
V@@ 1072
any@@ 1072
oo@@ 1068
give 1066
fac@@ 1066
life 1065
red 1064
ev@@ 1061
find 1059
A 1056
own 1055
ment@@ 1054
used 1053
chang@@ 1052
we've 1050
fl@@ 1047
'@@ 1043
ly, 1043
gen@@ 1038
can't 1037
iti@@ 1027
that. 1026
re 1023
should 1023
show 1021
started 1020
comp@@ 1020
old 1020
Th@@ 1018
b 1012
ang@@ 1011
great 1009
,000 1004
ked 1000
am 998
.@@ 997
you. 997
plan@@ 996
st 990
wat@@ 989
say, 989
big 988
after 986
anc@@ 986
ce 984
happen@@ 981
pres@@ 981
br@@ 975
percent 973
on. 973
tre@@ 964
another 963
star@@ 963
That 960
ast@@ 956
end 949
ite 948
enc@@ 948
ke 946
lin@@ 939
this. 937
form@@ 935
never 935
der@@ 934
came 931
fun@@ 929
bit 927
part 927
sc@@ 927
re. 927
air@@ 924
att@@ 921
up@@ 920
produc@@ 919
he@@ 918
start 918
her@@ 917
e's 912
pri@@ 911
um@@ 910
body 908
h, 908
4@@ 904
whole 904
idea 898
ir@@ 897
cu@@ 894
ance 894
might 892
looking 891
change 891
als 890
struc@@ 889
clo@@ 888
ations 887
ge 887
el 886
r 882
next 878
int@@ 878
liv@@ 878
mar@@ 875
ow@@ 874
ni@@ 871
," 871
ki@@ 869
x 868
few 868
ess 866
hi@@ 865
Because 864
on, 863
ze 863
day 862
ist@@ 858
does 858
ain@@ 857
here, 857
ide@@ 855
il 853
out@@ 853
e? 852
still 851
ys 849
gre@@ 849
cor@@ 849
per 847
os@@ 847
here. 847
son@@ 843
When 843
da@@ 842
trans@@ 840
oun@@ 840
Now 839
ber@@ 839
comes 839
world. 837
each 836
al. 835
there. 834
St@@ 833
mat@@ 833
every@@ 833
igh@@ 832
7@@ 829
tor@@ 828
and@@ 823
them. 822
imag@@ 821
off@@ 820
mark@@ 820
Thank 818
low@@ 814
the@@ 814
5@@ 814
end@@ 813
al, 810
between 809
doesn't 809
off 808
this, 807
How 807
cont@@ 806
o, 805
les 804
way, 804
man 802
ru@@ 802
spe@@ 801
gener@@ 800
design@@ 798
ful@@ 797
" 797
thought 795
re, 792
tic@@ 790
fre@@ 788
million 788
ear@@ 787
wanted 786
ric@@ 786
try 785
se. 783
long 782
ess@@ 782
cur@@ 781
ak@@ 778
said 776
der 775
ori@@ 775
oc@@ 773
bu@@ 770
thing. 770
me, 769
tri@@ 766
tion@@ 766
call 765
ell@@ 761
6@@ 761
19@@ 760
8@@ 758
them@@ 758
ful 758
ey@@ 757
important 756
some@@ 756
system@@ 756
0@@ 756
dre@@ 751
ste@@ 751
! 749
time, 747
jo@@ 747
always 746
cent@@ 745
ture 744
Y@@ 740
time. 736
ani@@ 735
trying 734
sion@@ 733
cl@@ 733
met@@ 731
I'll 725
uc@@ 721
real 721
There's 717
ve@@ 717
ter 717
fa@@ 717
differ@@ 716
bac@@ 716
serv@@ 715
f 714
may 714
place 713
and, 713
what's 710
9@@ 709
better 709
question@@ 709
'd 709
ati@@ 708
ligh@@ 705
found 704
sit@@ 704
sub@@ 703
show@@ 700
th. 700
self 699
less 696
coming 695
low 695
wal@@ 695
au@@ 694
le, 694
before 693
working 693
bor@@ 693
sup@@ 692
high@@ 692
took 691
acc@@ 690
10 690
day, 689
stor@@ 687
understand 687
zed 686
fact, 685
ep@@ 685
tal@@ 684
quite 683
o. 683
har@@ 680
side 680
getting 679
plac@@ 678
ue 676
ates 676
four 676
ings 675
eng@@ 675
sen@@ 675
ten@@ 671
rel@@ 671
These 670
econom@@ 668
lat@@ 667
res 667
ry 667
you, 666
act 666
way. 664
et. 662
I'd 662
in. 662
ach@@ 661
over@@ 660
se, 660
ari@@ 660
ation@@ 658
ds, 657
other@@ 656
believe 656
ses 655
ity. 655
year 655
writ@@ 654
down@@ 654
love 653
course, 651
mer@@ 650
speci@@ 650
e-@@ 648
problem@@ 647
done 646
ell 644
using 644
in, 642
ke@@ 641
my@@ 639
ach 639
point 639
one. 638
ms 637
ase 635
now, 632
there, 631
live 628
ative 628
One 626
create 626
lear@@ 626
ob@@ 625
world, 624
work@@ 623
probably 623
pla@@ 623
ack 622
ons 621
develop@@ 621
ions 620
us. 619
long@@ 619
ans 619
ers, 618
y? 618
making 617
too 617
ion@@ 616
spi@@ 616
out. 615
bre@@ 615
feel 614
them, 612
fam@@ 611
can@@ 611
out, 610
you've 610
net@@ 608
boo@@ 607
evol@@ 607
spen@@ 606
th, 605
ves 604
pretty 602
My 602
ty@@ 602
him 601
en, 600
person@@ 600
tw@@ 599
happ@@ 599
sy@@ 599
pr@@ 598
design 597
und 596
An@@ 595
gr@@ 593
talking 593
an, 592
connec@@ 592
pic@@ 589
nam@@ 588
tive 588
et, 588
water 587
comput@@ 587
ement@@ 586
what@@ 586
sk@@ 585
maybe 584
ici@@ 583
one, 582
ral 580
mov@@ 580
We're 579
hun@@ 579
cam@@ 578
ory 578
win@@ 578
lu@@ 577
w, 576
hav@@ 575
problem 573
five 572
ei@@ 571
technology 571
he's 570
respon@@ 570
ity, 569
become 568
so, 567
wee@@ 566
ast 565
let 565
story 564
uti@@ 564
ess, 563
ws 562
ence. 562
um 562
port@@ 561
sim@@ 561
pu@@ 560
te 560
ef@@ 557
ea@@ 557
duc@@ 557
mus@@ 557
number 555
years, 555
point@@ 555
light 554
pp@@ 553
commun@@ 552
cer@@ 551
us, 551
thing, 551
dro@@ 551
build 549
me. 548
without 548
anim@@ 547
sum@@ 546
pas@@ 546
col@@ 546
pen@@ 545
mean, 545
bro@@ 542
coun@@ 540
human@@ 540
ps 538
small 538
having 537
den@@ 536
know@@ 535
everything 535
means 535
don@@ 535
sm@@ 535
ood 534
best 534
inst@@ 533
part@@ 532
pol@@ 532
gg@@ 532
ous@@ 531
In@@ 530
ai@@ 530
mu@@ 528
half 528
m, 527
20 527
... 527
univer@@ 527
50 526
beg@@ 526
they@@ 526
've 523
ect 523
compl@@ 523
across 522
ents 522
sure 521
thinking 519
ard 519
reali@@ 519
ily 518
ator@@ 518
person 518
cas@@ 518
second 517
govern@@ 517
af@@ 516
eas@@ 515
building 515
move 515
head@@ 515
interesting 515
up, 514
help 514
partic@@ 514
kids 514
loo@@ 513
set 513
system 513
en. 513
ities 512
lev@@ 512
up. 512
stre@@ 512
such 511
sor@@ 509
ge@@ 509
him@@ 509
ce@@ 508
fo@@ 507
ers. 507
makes 507
ore 506
Ma@@ 505
cap@@ 505
mach@@ 505
question 505
ence, 502
ly. 502
form 502
exper@@ 502
spec@@ 501
educ@@ 501
school@@ 501
All 500
play 499
ics 498
tion. 498
ig@@ 497
pe 497
bra@@ 497
children 496
cell@@ 496
brain 496
coll@@ 495
seen 495
thre@@ 495
saw 495
away 494
you@@ 494
e: 494
face 494
ask 494
like, 494
't 493
en't 493
all, 492
ff@@ 492
rac@@ 492
ds. 492
chi@@ 492
great@@ 491
hel@@ 491
sic 490
things. 489
power 489
pos@@ 488
s? 487
well 487
Som@@ 486
'll 486
goes 486
ply 486
told 485
Mar@@ 485
popul@@ 483
tions 481
are@@ 481
incredi@@ 480
blo@@ 479
stud@@ 477
ak 476
ution 475
enough 475
vol@@ 474
ill@@ 473
minut@@ 473
sense 473
hy@@ 472
bri@@ 471
grow@@ 471
ved 470
cho@@ 470
ago, 469
sing 469
spac@@ 469
du@@ 468
sci@@ 468
happened 467
U@@ 467
kill@@ 466
New 466
years. 465
rit@@ 465
people, 465
od 465
ther, 465
if@@ 465
bod@@ 465
En@@ 464
ition 463
ho@@ 463
seri@@ 462
direc@@ 462
anything 461
id 460
far@@ 459
por@@ 459
looks 458
m. 457
mis@@ 456
fact 455
natu@@ 455
energy 454
thin@@ 454
For 454
She 453
present@@ 453
tro@@ 453
de, 453
bring 452
tiv@@ 451
life. 450
do. 449
mas@@ 449
teach@@ 447
both 446
dollars 445
left 444
together 444
de. 444
ones 444
ris@@ 444
tion, 444
ank 443
oce@@ 443
almost 443
within 443
again, 441
ale 441
As 441
top 441
hom@@ 440
or, 439
hour@@ 439
Americ@@ 438
toge@@ 437
objec@@ 437
cos@@ 436
ute 436
lik@@ 435
friend@@ 435
keep 434
think, 434
billion 434
stuff 434
though 434
looked 433
tell@@ 433
world@@ 433
couple 432
projec@@ 432
money 432
whether 431
let's 431
atu@@ 431
ish 431
United 430
prof@@ 430
that@@ 430
asked 429
begin@@ 429
technolog@@ 428
ll 428
Why 428
og@@ 428
under@@ 428
’@@ 428
ement 427
social 427
ext@@ 426
larg@@ 426
eg@@ 426
[@@ 426
hand@@ 425
people. 425
tur@@ 425
ey 425
20@@ 424
want@@ 423
societ@@ 423
ven 422
They're 422
mem@@ 422
six 422
pictu@@ 422
deci@@ 421
single 421
mill@@ 421
dent@@ 421
5 420
rou@@ 420
comm@@ 420
much. 420
gl@@ 419
reg@@ 418
bad 417
pot@@ 417
simple 417
langu@@ 417
work. 416
living 416
times 416
mal 416
wron@@ 415
line 415
put@@ 415
fu@@ 414
Al@@ 414
polit@@ 414
turn 414
200@@ 414
run@@ 413
ill 413
information 413
tim@@ 413
inc@@ 413
foo@@ 413
plo@@ 413
well, 412
gam@@ 412
lead@@ 411
rat@@ 411
ser@@ 411
som@@ 411
ts, 410
read@@ 410
mean 409
reason 409
ave 409
bot@@ 409
ba@@ 409
hol@@ 409
heard 408
ets 408
mean@@ 408
an. 408
eri@@ 407
ion, 407
list@@ 407
dic@@ 407
gir@@ 406
kinds 406
rag@@ 405
basically 405
data 405
inf@@ 404
rec@@ 404
hard 403
cat@@ 403
need@@ 403
ins 403
ors 403
now. 402
ion. 402
ain 401
bly 400
nor@@ 399
piece 398
under 398
le. 397
ic. 397
ner@@ 396
must 396
shap@@ 396
materi@@ 395
caus@@ 395
already 394
ts. 394
cle@@ 394
Indi@@ 394
contro@@ 394
goo@@ 394
feel@@ 394
U.@@ 393
this@@ 392
ent. 392
shi@@ 392
foll@@ 392
100 391
ram@@ 391
gets 391
ick 390
global 390
power@@ 390
vie@@ 390
' 390
val@@ 389
dat@@ 389
ability 388
high 388
e." 388
until 387
g, 386
land@@ 386
ail@@ 386
ass@@ 386
space 386
ame 386
tot@@ 385
reas@@ 385
right? 385
id@@ 385
possi@@ 385
patter@@ 385
inste@@ 384
mag@@ 384
imp@@ 383
ess. 383
] 383
continu@@ 382
is. 382
ational 382
today 382
vit@@ 382
ver 381
food 381
ure 381
ving 381
"I 381
rese@@ 381
tly 380
able. 380
bas@@ 380
ness 380
aw@@ 380
oper@@ 380
selves 380
leg@@ 379
nothing 379
dri@@ 379
far 378
clim@@ 377
ther. 377
ways 377
jec@@ 377
computer 377
says, 376
olog@@ 376
dra@@ 376
chall@@ 375
ship 374
picture 373
ty 373
incre@@ 372
ut 371
age, 371
rather 371
sist@@ 371
fic 371
i 371
life, 371
wn 370
once 370
hist@@ 370
tou@@ 370
read 370
bir@@ 370
learn 369
completely 369
bar@@ 369
ong 368
care 368
expec@@ 367
all. 367
individu@@ 367
somebody 366
real@@ 366
cra@@ 366
appe@@ 366
ack@@ 366
course 365
ideas 365
room@@ 365
cep@@ 365
stori@@ 364
sed 364
environment@@ 364
built 364
wasn't 364
,@@ 364
un 364
figure 364
isn't 364
fil@@ 364
liter@@ 363
happens 363
excit@@ 362
age. 362
ble. 362
air 362
ist 361
char@@ 361
sta@@ 360
while 360
ran@@ 360
seem@@ 360
pur@@ 359
year@@ 359
arch@@ 359
fer@@ 359
build@@ 358
important@@ 358
30 358
country 358
ies 358
ich@@ 358
taking 358
0 358
dist@@ 358
heal@@ 358
rem@@ 357
vent@@ 357
inside 357
bigg@@ 356
lots 356
play@@ 356
stand@@ 355
science 355
shor@@ 355
student@@ 355
00 355
hear@@ 355
guy 355
opportun@@ 354
possible 354
effec@@ 353
land 353
school 353
ic, 352
hope 352
OK, 352
cul@@ 352
Then 351
ys, 351
bilit@@ 351
vari@@ 351
y's 351
but@@ 350
o-@@ 350
ust@@ 350
decided 349
And, 348
ve. 347
Ear@@ 347
everybody 346
sign@@ 346
order 345
of@@ 345
you'll 345
beautiful 345
Let's 344
pati@@ 344
’s 344
since 343
front 343
won@@ 343
taken 343
couldn't 343
ouldn't 342
led 342
exactly 342
mol@@ 342
experi@@ 341
ve, 341
meas@@ 341
stuff@@ 341
ely, 340
ands 340
ose 340
young 340
cir@@ 340
Africa 339
sion, 339
ax@@ 339
ash@@ 338
vo@@ 338
see, 338
Yea@@ 338
architec@@ 337
turns 337
room 337
then, 337
engine@@ 336
s: 335
fic@@ 335
ent, 335
sho@@ 333
kin@@ 333
ists 333
answer 333
ering 332
ber 332
run 332
Go@@ 332
behavi@@ 332
tru@@ 331
g. 331
things, 331
your@@ 331
"The 331
often 331
st, 330
book 330
centur@@ 330
ath 329
public 329
lit@@ 329
discover@@ 329
squ@@ 329
ter. 328
knew 328
ese 328
as, 327
sion. 327
etimes 327
well. 326
ener@@ 325
ick@@ 325
interest@@ 325
Here 325
became 325
You@@ 324
We've 324
anti@@ 324
ously 323
quick@@ 323
ordin@@ 323
allow@@ 323
fiel@@ 323
ch, 322
y-@@ 322
qual@@ 322
large 322
organiz@@ 322
open 322
or. 321
car 321
do, 321
midd@@ 320
countr@@ 320
business 319
ks. 319
ace 319
Afric@@ 319
Here's 318
sourc@@ 318
again@@ 318
back@@ 318
Li@@ 318
ad, 318
secon@@ 317
scient@@ 317
we'll 317
moment@@ 317
problems 316
ward 316
w. 316
huge 315
someone 315
natural 315
here's 315
Wor@@ 314
qui@@ 314
den 313
hear 313
open@@ 313
head 313
ven@@ 312
American 312
countries 312
certain 312
lif@@ 311
electr@@ 311
positi@@ 311
2 311
innov@@ 311
obvi@@ 311
who@@ 311
example, 311
ants 311
ep 310
bet@@ 310
know. 310
arch 310
shar@@ 309
S. 309
Pe@@ 309
perhap@@ 309
fir@@ 309
ter, 309
understand@@ 309
port 308
loc@@ 308
it? 308
future 308
entire 308
relation@@ 308
places 308
ow 308
imagine 307
wonderful 307
top@@ 307
ate, 307
experience 307
befor@@ 307
was, 307
thro@@ 307
selv@@ 306
bur@@ 306
group 306
posed 306
moving 306
cr@@ 306
ur 306
gar@@ 305
women 305
ally. 305
remember 305
"Well, 305
particular 305
turned 304
ind 304
actually, 304
ching 304
example 304
vers@@ 304
invol@@ 303
appro@@ 303
model@@ 303
else 303
thing@@ 303
ments 302
pai@@ 302
number@@ 302
flo@@ 302
p. 302
mal@@ 302
takes 301
day. 301
word 301
process 301
least 300
"O@@ 300
elec@@ 300
program@@ 300
perf@@ 299
works 299
ular@@ 299
rul@@ 299
fro@@ 299
cultu@@ 299
righ@@ 298
n. 298
diffic@@ 298
Ar@@ 298
are, 297
project 297
call@@ 297
ult 296
percent@@ 296
dar@@ 296
see@@ 296
gave 295
des 295
ago 295
tor 295
forc@@ 295
Do 295
charac@@ 295
protec@@ 295
photograph@@ 295
aff@@ 294
vic@@ 294
of, 294
00@@ 294
saying 294
Earth 294
city 293
sh 293
sec@@ 293
today. 293
work, 293
ched 293
las@@ 293
atic@@ 293
along 293
aver@@ 292
based 292
s." 292
get@@ 292
ativ@@ 292
h. 292
pan@@ 292
ys. 292
biolog@@ 292
ks, 292
Be@@ 291
recor@@ 291
wit@@ 291
ever@@ 291
resul@@ 291
amount 291
seeing 291
outh 291
ered 290
buy 290
hu@@ 290
with@@ 289
cannot 289
ution@@ 289
Is 289
very, 289
created 289
driv@@ 288
cop@@ 288
right. 288
matter 288
children@@ 288
emo@@ 288
mess@@ 288
0, 287
worked 287
sive 287
communic@@ 287
amazing 287
against 287
name 286
d-@@ 286
dition@@ 286
seven 286
interested 286
size 286
pul@@ 286
physic@@ 286
home 285
movi@@ 285
brea@@ 285
maj@@ 285
early 285
happen 285
Con@@ 284
ically 284
stop 284
defin@@ 284
tivit@@ 284
self-@@ 284
ad. 284
roc@@ 284
ago. 284
adv@@ 283
gli@@ 283
cli@@ 282
diseas@@ 282
ben@@ 282
third 282
ance, 282
year, 282
view 281
fri@@ 281
valu@@ 281
ann@@ 281
sym@@ 281
plic@@ 281
wom@@ 281
iment@@ 281
planet 281
ences 280
mind 280
ner 279
health 279
n, 279
ere, 279
Z@@ 279
We@@ 279
believ@@ 279
chem@@ 279
as. 279
hor@@ 279
wo@@ 278
Di@@ 278
scre@@ 278
learned 278
sel@@ 277
Gre@@ 277
notic@@ 277
ine. 277
tool@@ 276
fully 276
lling 276
fish@@ 276
Nor@@ 276
species 276
video 276
audi@@ 276
Or 276
proc@@ 275
histor@@ 275
exampl@@ 275
ren@@ 275
are. 275
case 275
new@@ 275
fur@@ 275
futu@@ 274
ment. 274
recogn@@ 274
known 274
thought, 274
visu@@ 274
days 273
invent@@ 273
thousands 273
year. 273
state 273
moment 273
rest 273
You're 273
tried 273
other. 273
Inter@@ 272
exist@@ 272
job@@ 272
house 272
10@@ 271
fast@@ 271
ine, 271
self. 271
ld 271
Ever@@ 271
leave 271
ange 270
cept 270
knowled@@ 270
t? 270
heart 270
No, 270
ga@@ 270
child 270
sli@@ 269
Just 269
Re@@ 269
months 269
ations. 269
Not 268
at's 268
No@@ 268
self, 267
ey, 267
ate. 267
national 267
bal@@ 267
ped 267
dur@@ 266
inde@@ 266
phy@@ 266
tic 266
tom@@ 265
predic@@ 265
art 265
sun@@ 265
p, 265
TED@@ 264
org@@ 264
dit@@ 263
descri@@ 263
pt 263
3 262
sequ@@ 262
vir@@ 262
uni@@ 262
cri@@ 261
test@@ 261
spre@@ 261
Don@@ 261
compas@@ 261
CA: 260
crit@@ 260
vill@@ 259
famili@@ 259
4 259
TED 259
ice, 258
dollar@@ 258
cro@@ 258
ol 258
ulti@@ 258
studi@@ 258
ssi@@ 257
inclu@@ 257
right, 257
men@@ 257
solut@@ 257
hou@@ 257
stra@@ 256
situ@@ 256
15 256
cy@@ 256
certa@@ 256
stri@@ 256
Oka@@ 256
colo@@ 255
ju@@ 255
40 255
emer@@ 255
tech@@ 255
del 255
tt@@ 255
ron@@ 254
Is@@ 253
men 253
clas@@ 253
carb@@ 252
micro@@ 252
7 252
gal@@ 252
ople 251
rin@@ 251
ling 251
wonder@@ 250
6 250
answ@@ 250
busin@@ 250
inv@@ 250
ament@@ 249
son 249
ov@@ 248
trav@@ 248
ice. 247
u 247
Au@@ 247
ular 246
test 245
though@@ 245
technolo@@ 245
fel@@ 245
equ@@ 244
ft 244
be, 243
ature 243
invest@@ 242
anci@@ 242
ina 242
usu@@ 241
az@@ 241
el, 241
ester@@ 240
fav@@ 240
stru@@ 240
fis@@ 240
Af@@ 239
aut@@ 238
cit@@ 238
Sh@@ 237
Ne@@ 237
che@@ 237
os 237
preci@@ 236
wn@@ 236
bill@@ 235
intell@@ 235
peopl@@ 235
tele@@ 234
success@@ 234
r. 233
itu@@ 233
go. 233
ere 232
ved@@ 232
OK. 231
throu@@ 231
tem@@ 231
ban@@ 230
indu@@ 230
i, 227
India 227
anal@@ 227
oul@@ 227
iv@@ 227
area 227
50@@ 227
sem@@ 227
pow@@ 227
Ro@@ 226
recent@@ 226
ologi@@ 226
compet@@ 225
Bi@@ 225
ten 223
ia 223
gh 223
cost@@ 222
vide@@ 222
pose 222
radi@@ 222
pag@@ 222
V 221
ion 221
dimension@@ 221
sud@@ 220
app@@ 220
inform@@ 220
oni@@ 219
robot@@ 219
origin@@ 219
was@@ 219
nucle@@ 219
moder@@ 218
countri@@ 218
Wi@@ 218
simi@@ 218
B: 218
non-@@ 217
visi@@ 216
tec@@ 216
terri@@ 216
Ex@@ 215
rest@@ 215
post@@ 215
tin@@ 214
Su@@ 214
develo@@ 213
actu@@ 213
well@@ 213
to, 213
enou@@ 213
om 212
mp@@ 212
urb@@ 211
Man@@ 211
Pro@@ 210
medi@@ 210
gn@@ 210
199@@ 210
cover@@ 210
capit@@ 209
Par@@ 209
stron@@ 209
hop@@ 209
Le@@ 208
HI@@ 208
It@@ 208
succ@@ 207
demo@@ 207
Mo@@ 207
organis@@ 207
soci@@ 207
lim@@ 206
n't 206
S 206
ger@@ 205
cal@@ 205
super@@ 204
pend@@ 204
ele@@ 203
ple 203
grand@@ 203
lar@@ 202
med@@ 202
ich 201
York 200
dest@@ 200
ession@@ 200
poll@@ 199
viol@@ 199
9 199
ch. 199
18@@ 199
ay 198
dd@@ 198
int 198
produce 197
Com@@ 197
ned 197
ini@@ 197
sugg@@ 196
clu@@ 196
arti@@ 196
scienti@@ 196
sue 195
bit@@ 195
web@@ 195
Un@@ 194
stat@@ 194
era 194
din@@ 193
necess@@ 193
ness@@ 193
Africa. 193
effici@@ 192
ns 192
artist@@ 192
amb@@ 192
Mon@@ 191
zz@@ 191
8 191
equi@@ 191
organi@@ 191
sour@@ 190
sing@@ 189
ospit@@ 189
figu@@ 188
De@@ 188
Internet 188
Goog@@ 187
!" 186
underst@@ 186
25 186
ere@@ 186
ure@@ 186
princi@@ 186
ton 185
thous@@ 185
ust 185
For@@ 184
ove 184
la 184
Se@@ 183
religi@@ 182
evid@@ 182
plor@@ 181
"S@@ 181
softw@@ 180
sens@@ 180
Co@@ 180
sal@@ 180
not@@ 179
digit@@ 179
pat@@ 179
spo@@ 178
foc@@ 178
abilit@@ 177
pass@@ 177
sop@@ 176
suff@@ 176
Car@@ 175
separ@@ 175
peri@@ 175
ere. 175
month@@ 175
amp@@ 175
past@@ 175
D 175
tar@@ 174
dev@@ 174
60 174
magn@@ 174
Africa, 174
intro@@ 173
entu@@ 172
pover@@ 172
enor@@ 172
rist@@ 172
rice 171
inten@@ 171
tan@@ 170
industri@@ 170
gol@@ 170
Ge@@ 170
alt@@ 170
ate@@ 169
possibilit@@ 169
sco@@ 169
luc@@ 169
teri@@ 169
ogra@@ 169
let@@ 169
ir 168
signific@@ 168
essi@@ 168
Bo@@ 168
atmo@@ 168
da 168
des@@ 168
media 168
500 167
genet@@ 167
ould 167
epi@@ 166
Bu@@ 166
compar@@ 166
pec@@ 166
to. 166
viv@@ 166
od@@ 166
immedi@@ 165
Joh@@ 164
ybe 164
ably 164
200 164
DNA 164
ete 163
ost@@ 163
America 163
complic@@ 163
film 163
alc@@ 162
Uni@@ 162
medic@@ 162
lav@@ 162
e; 161
virtu@@ 161
zer@@ 160
lun@@ 160
publi@@ 160
civi@@ 160
insi@@ 160
bom@@ 159
12 159
stu@@ 159
dise@@ 157
canc@@ 157
sid@@ 156
influ@@ 156
pensi@@ 156
no, 156
confer@@ 155
cru@@ 155
Euro@@ 155
priv@@ 155
idea. 155
cour@@ 155
1 154
fine 154
ka@@ 154
illu@@ 153
Chris 153
hal@@ 153
simul@@ 153
temper@@ 152
eff@@ 152
progres@@ 152
OK@@ 152
beauti@@ 152
ros@@ 150
que 150
chil@@ 150
gn 149
fortunat@@ 149
full@@ 149
mist@@ 149
18 149
atom@@ 149
ign@@ 147
mini@@ 147
Vi@@ 147
Ri@@ 147
mic@@ 147
H: 147
ho 146
buil@@ 146
process@@ 146
remem@@ 145
AID@@ 145
Tim@@ 145
sic@@ 145
Ira@@ 145
aci@@ 145
ton@@ 144
autom@@ 144
quar@@ 144
pet@@ 144
combin@@ 144
i. 144
ett@@ 144
contin@@ 144
enomen@@ 144
esi@@ 144
univers@@ 143
commerci@@ 143
ero@@ 143
sil@@ 142
ild@@ 142
Fran@@ 142
alist@@ 141
sch@@ 141
etim@@ 141
pon@@ 141
Si@@ 141
Har@@ 141
diag@@ 141
forest@@ 140
stati@@ 140
They@@ 140
fantast@@ 140
fron@@ 140
Europ@@ 140
"A@@ 140
discus@@ 139
glob@@ 139
amaz@@ 139
X@@ 139
Pre@@ 138
do? 138
desi@@ 138
hap@@ 138
/@@ 137
gri@@ 137
environ@@ 136
serve 136
C 136
abi@@ 135
pren@@ 135
Secon@@ 135
ole 135
Yor@@ 135
contri@@ 134
Per@@ 134
liber@@ 134
bus@@ 133
eve 133
limit@@ 132
tran@@ 132
uro@@ 132
grav@@ 131
doll@@ 130
scal@@ 130
ye@@ 130
fini@@ 130
sul@@ 129
nut@@ 129
alter@@ 129
100@@ 129
diver@@ 129
sent@@ 129
integr@@ 129
cause 128
T 127
rap@@ 127
Dav@@ 126
conclu@@ 126
consu@@ 125
A, 125
ascin@@ 125
anz@@ 124
scen@@ 123
tra 123
capac@@ 123
regi@@ 123
log@@ 123
ma 123
11 122
colleg@@ 122
beli@@ 122
motiv@@ 121
Sa@@ 121
consider@@ 121
lob@@ 121
radic@@ 121
determin@@ 120
sett@@ 119
z 119
acci@@ 119
docu@@ 118
colle@@ 117
youn@@ 117
child@@ 117
CO@@ 116
improv@@ 116
pal@@ 116
prob@@ 116
forni@@ 115
ken 115
curi@@ 115
ready 114
divi@@ 114
controll@@ 114
0. 112
scu@@ 112
ale. 111
scar@@ 111
attr@@ 111
intellig@@ 111
reli@@ 111
ina, 111
ese, 111
consi@@ 110
Jo@@ 110
tle 110
abit@@ 110
fici@@ 109
ard@@ 109
anis@@ 109
prepar@@ 108
dop@@ 108
atur@@ 108
stem 107
Qu@@ 107
o: 107
conver@@ 106
thir@@ 106
lan@@ 105
dig@@ 105
A. 105
nu@@ 104
collabor@@ 104
bile 104
ound 103
ero 102
inci@@ 102
Po@@ 102
fort@@ 102
natur@@ 102
rapi@@ 101
vin@@ 101
scri@@ 101
ene 101
conv@@ 101
so. 100
relig@@ 100
Gu@@ 99
libr@@ 99
contr@@ 98
prov@@ 98
norm@@ 98
q@@ 98
fortun@@ 97
del@@ 97
mul@@ 96
ell, 96
ina. 96
ire 95
sti@@ 95
propri@@ 95
net 95
labor@@ 94
gy 94
bb@@ 94
riv@@ 93
perio@@ 93
batter@@ 93
concentr@@ 93
ai 93
emis@@ 91
impres@@ 91
non@@ 91
neg@@ 90
ese. 89
photogra@@ 89
robot 89
pun@@ 89
err@@ 89
ha 89
pit@@ 89
divers@@ 88
tend@@ 88
con 87
$@@ 86
letter@@ 86
P 86
eli@@ 86
sin@@ 85
mac@@ 85
corr@@ 85
visit@@ 85
kes 85
a: 85
import@@ 84
prote@@ 84
infin@@ 84
fos@@ 83
arriv@@ 83
ra 83
spon@@ 83
conf@@ 83
elet@@ 83
edi@@ 82
Ben@@ 82
ale, 82
All@@ 81
ans@@ 81
mam@@ 81
evi@@ 81
distribu@@ 81
etter 80
sai@@ 80
complet@@ 80
base 79
tras@@ 79
cav@@ 79
batt@@ 79
applic@@ 78
ane 78
stim@@ 78
fat@@ 78
dol@@ 78
san@@ 77
K 77
gest@@ 77
arri@@ 77
A: 77
ili@@ 77
comb@@ 76
alth 76
ile 76
no. 76
kno@@ 76
O 75
cogn@@ 75
fr@@ 75
]@@ 75
nex@@ 74
sult@@ 74
appar@@ 74
DN@@ 74
stem@@ 74
ret@@ 74
distri@@ 74
da, 74
ana 73
Gi@@ 73
Al 72
mani@@ 72
gin@@ 72
Come 71
accor@@ 71
indi@@ 70
tas@@ 70
facil@@ 70
dia 70
coul@@ 69
aria 69
ule 69
na 68
gres@@ 68
auti@@ 67
Pri@@ 66
aper@@ 66
nolo@@ 66
evit@@ 65
acqu@@ 64
ne 64
ross 64
guar@@ 64
dir@@ 63
bell@@ 63
ond@@ 63
parti@@ 62
worl@@ 62
lon@@ 62
ampl@@ 61
ific@@ 61
Pi@@ 61
engin@@ 61
fal@@ 61
nec@@ 61
a? 60
amoun@@ 60
ta 59
e" 58
sia 58
disc@@ 58
Lu@@ 58
gram@@ 58
line@@ 57
a." 57
occu@@ 57
ambi@@ 56
?@@ 56
US@@ 55
mom@@ 55
q 55
atter@@ 55
vis@@ 54
B 54
rav@@ 54
Cre@@ 54
nel 54
nost@@ 54
X 52
enz@@ 52
due 52
sof@@ 52
metri@@ 52
di 52
mapp@@ 52
pens@@ 51
veni@@ 51
self@@ 51
prim@@ 51
pian@@ 51
E 51
nov@@ 50
ool@@ 50
occup@@ 50
ord@@ 49
scor@@ 49
Q@@ 49
ica 48
ra, 48
Pen@@ 48
sper@@ 48
ore. 47
spar@@ 47
ro 47
hi 47
abb@@ 47
o? 46
zone 46
M 45
Pa@@ 45
R 45
uman@@ 45
abor@@ 44
mass@@ 44
ingu@@ 44
sto@@ 44
pen 44
ore, 43
&@@ 43
te, 43
prefer@@ 43
ato 43
nuc@@ 43
:@@ 43
lett@@ 42
fut@@ 42
ano 42
Im@@ 42
ool 42
lor@@ 41
ample 41
via 41
vor@@ 41
ba 41
li 41
ia, 41
quest@@ 40
ola 40
Pu@@ 40
sco 40
ren 40
does@@ 40
obi@@ 39
ette 39
;@@ 39
pure 39
gover@@ 39
L 39
tent@@ 38
zi@@ 38
ra. 38
dot@@ 38
N 38
sb@@ 38
vere 37
quant@@ 37
cc@@ 37
ether 36
pad@@ 36
cen@@ 36
centr@@ 36
ole, 36
ri 36
- 35
betwe@@ 35
velo@@ 35
led@@ 35
ma. 35
La 35
io 34
atori@@ 34
AI@@ 34
archit@@ 34
diff@@ 34
..@@ 34
bo 34
sar@@ 34
ok 33
assi@@ 33
ani 33
asp@@ 33
iti 32
gran@@ 32
schi@@ 32
dal 32
[ 32
ma, 31
robo@@ 31
v 31
Mol@@ 31
ff 30
gros@@ 30
ita 29
fare 29
da. 29
entr@@ 29
lla 29
diverse 28
che 28
behav@@ 28
Ter@@ 28
razi@@ 28
...@@ 27
atten@@ 27
F 27
vist@@ 27
dimen@@ 27
!@@ 27
tut@@ 27
exac@@ 26
termin@@ 26
fant@@ 26
tir@@ 26
azz@@ 26
cin@@ 26
etti 26
ou 26
olo@@ 26
H 26
ello 25
o." 25
opl@@ 25
lingu@@ 25
ini 25
thou@@ 25
G 25
bli@@ 25
chie@@ 25
Cer@@ 24
ari 24
altr@@ 24
va 24
gi 24
ico 24
viron@@ 24
tty 24
ino 23
numer@@ 23
petro@@ 23
amer@@ 23
're 23
erra 23
Y 22
forma@@ 22
ata 22
ario 22
lo 21
pia 21
ico. 21
se: 21
dut@@ 20
000 20
mad@@ 20
Pot@@ 20
agi@@ 20
princip@@ 20
Q 19
sfi@@ 19
guid@@ 19
lavor@@ 19
bile. 18
agn@@ 18
senti@@ 18
uff@@ 18
mili@@ 18
ito 18
mi 18
mo 18
quad@@ 18
te. 18
ati 18
unti@@ 17
dare 17
lo. 17
dn't 17
za 17
Z 17
ali 17
issi@@ 17
informa@@ 17
E, 17
vec@@ 17
co, 17
d'@@ 16
ico, 16
num@@ 16
% 16
una 16
é@@ 15
) 15
pron@@ 15
ere's 15
Av@@ 15
fatt@@ 15
co 15
sa 15
ica, 14
ona 14
ro, 14
arg@@ 14
U 14
fon@@ 14
ora 13
merc@@ 13
ca 13
pes@@ 13
si 13
bbi@@ 13
ura 13
atti@@ 13
li. 13
dice 13
legg@@ 13
W 12
ci 12
ica. 12
osci@@ 12
noti@@ 12
pien@@ 12
impe@@ 12
li, 12
sta 12
det@@ 12
ö@@ 12
nell@@ 11
I'@@ 11
ori 11
muc@@ 11
lei 11
perc@@ 11
blem@@ 11
aver 11
salv@@ 11
solo 11
Ed 11
#@@ 11
ti 11
si, 10
di, 10
ro. 10
Ci@@ 10
rete 10
uto 10
ni 10
nem@@ 10
/ 10
capi@@ 10
fu 10
econ@@ 10
J 10
ga 10
é 10
ca, 9
ggi@@ 9
ece 9
ono 9
ata. 9
otogra@@ 9
posi@@ 9
perch@@ 9
oria 9
della 9
guard@@ 9
asc@@ 9
aggi@@ 9
po 8
ris 8
". 8
endo 8
Pos@@ 8
ta. 8
lem 8
ali, 8
gett@@ 8
eva 8
ete, 8
á@@ 8
l'@@ 8
non 8
Quest@@ 8
osc@@ 8
— 8
cose 8
coup@@ 7
cresc@@ 7
Il 7
oi 7
mare 7
chi 7
ando@@ 7
uro 7
dott@@ 7
ali. 7
dai 7
etti@@ 7
che, 7
utto@@ 7
unqu@@ 7
Let@@ 6
ava 6
to: 6
omen@@ 6
si. 6
fare. 6
matt@@ 6
TE@@ 6
elle 6
fa 6
portun@@ 6
quel 6
Tut@@ 6
elli 6
ó 6
ato, 6
dove 6
di. 6
coli 6
– 6
agli@@ 6
atica 6
ù 5
etti, 5
superfici@@ 5
(@@ 5
ora, 5
ando 5
ata, 5
anzi@@ 5
+ 5
etto 5
col 5
inte@@ 5
vo 5
j 5
vicin@@ 5
ante 5
co. 5
ta, 5
zza 5
ries@@ 5
po, 5
mia 5
ü@@ 5
enza. 5
eri 5
elo 4
ù@@ 4
gia 4
Cos@@ 4
circa 4
merci@@ 4
fond@@ 4
osa 4
nas@@ 4
ca. 4
ito, 4
ente 4
dire 4
ei 4
í@@ 4
tu 4
esi 4
tare 4
mo, 4
azi@@ 4
torn@@ 4
Ve@@ 4
è@@ 4
uno 4
avo 4
vi 4
uti 4
ã@@ 4
indi 4
cellul@@ 3
ades@@ 3
che. 3
amo 3
anti 3
Per 3
+@@ 3
ñ@@ 3
tog@@ 3
enza 3
esse 3
oni 3
ori, 3
etta 3
tempo 3
ano, 3
Le 3
amento 3
=@@ 3
impar@@ 3
pub@@ 3
L'@@ 3
mie 3
parl@@ 3
@@@ 3
colt@@ 3
rius@@ 3
Amer@@ 3
vu@@ 3
ati, 3
ä@@ 3
ede 3
aia 3
ato. 3
^@@ 3
ogn@@ 3
dav@@ 3
é, 3
indi, 3
lizz@@ 3
ucci@@ 3
lo, 2
esist@@ 2
â@@ 2
edific@@ 2
ammo 2
strada 2
segu@@ 2
ï@@ 2
Dob@@ 2
allo 2
pie@@ 2
po. 2
acca@@ 2
lui 2
qui 2
ppo 2
oro 2
esper@@ 2
alla 2
ella 2
certo 2
', 2
cia 2
ati. 2
usci@@ 2
veloc@@ 2
* 2
É@@ 2
esser@@ 2
gio@@ 2
anza 2
ento 2
conc@@ 2
tempo. 2
svi@@ 2
ti, 2
Sono 2
", 2
vidu@@ 2
chio 2
prima 2
evi 2
hai 2
emo 2
.000 1
oso 1
risp@@ 1
persona 1
ć 1
terra 1
forma 1
oli 1
e' 1
ante, 1
conn@@ 1
sap@@ 1
zi 1
abbi@@ 1
vista 1
usa 1
dett@@ 1
tav@@ 1
anche 1
Una 1
ente, 1
ente. 1
ori. 1
Ho 1
Ha 1
Ma 1
bamb@@ 1
amo. 1
amo, 1
strut@@ 1
ifica 1
ricor@@ 1
otti@@ 1
dire, 1
enti 1
º@@ 1
anto 1
oggi@@ 1
˚ 1
igli@@ 1
atura 1
sui 1
’ 1
probabi@@ 1
…@@ 1
affron@@ 1
anni 1
–@@ 1
ò@@ 1
à@@ 1
ê@@ 1
rei 1
essi 1
pratic@@ 1
o... 1
—@@ 1
sul 1
Sap@@ 1
cerv@@ 1
anno, 1
zo 1
ano. 1
Da 1
otten@@ 1
ó@@ 1
qui, 1
sei 1
£@@ 1
# 1
ā@@ 1
ç@@ 1
Ç@@ 1
anti, 1
olo 1
donna 1
arsi 1
dov@@ 1
setti@@ 1
sare@@ 1
ito. 1
americ@@ 1
enza, 1
c'@@ 1
ti. 1
eggi@@ 1
fa, 1
possibi@@ 1
sull@@ 1
à 1
ghi@@ 1
