the 78393
to 47369
of 45374
a 43438
and 40094
in 32226
s 30907
that 28978
, 28833
. 26733
I 26657
is 25652
you 21461
ing 19774
And 19323
ed 16982
we 16801
e@@ 15472
y 15428
s@@ 15403
it 15378
re@@ 15084
es 14631
this 14627
h@@ 14561
d@@ 14036
t 13509
-- 13493
on 13408
c@@ 13337
p@@ 13316
t@@ 13046
w@@ 12483
in@@ 12452
f@@ 12119
y@@ 12085
g@@ 12006
e, 11805
b@@ 11775
o@@ 11651
s, 11560
are 11294
was 11270
a@@ 11021
s. 10908
have 10376
for 10315
e. 10245
l@@ 10226
i@@ 10050
d 9542
an 9108
e 9107
al@@ 9031
st@@ 9020
with 8930
ar@@ 8875
n@@ 8625
at 8575
m@@ 8436
k@@ 8409
-@@ 8368
se@@ 8347
as 8246
de@@ 8209
they 8196
about 8114
al 8091
ch@@ 7983
one 7961
what 7923
be 7918
ex@@ 7884
all 7881
u@@ 7881
en@@ 7785
un@@ 7772
can 7729
er@@ 7654
r@@ 7617
er 7607
or@@ 7591
it@@ 7458
y. 7449
ac@@ 7429
S@@ 7324
or 7308
"@@ 7230
at@@ 7066
? 6992
ic@@ 6953
ro@@ 6937
not 6874
on@@ 6849
y, 6845
an@@ 6490
m 6450
th@@ 6371
as@@ 6329
li@@ 6280
do 6214
ou@@ 6132
si@@ 5904
it's 5804
So 5750
A@@ 5719
from 5697
be@@ 5634
le@@ 5611
like 5514
so 5503
my 5486
el@@ 5483
sh@@ 5353
our 5325
ma@@ 5296
very 5243
just 5237
: 5214
ve 5098
but 5094
The 5052
k 5038
di@@ 5009
to@@ 4973
out 4961
people 4921
et@@ 4905
v@@ 4883
M@@ 4849
lo@@ 4841
vi@@ 4837
going 4806
if 4792
But 4741
these 4675
ag@@ 4669
am@@ 4619
con@@ 4578
ri@@ 4546
es, 4535
ad@@ 4470
n 4463
ly 4430
mo@@ 4426
es. 4421
co@@ 4421
us@@ 4386
B@@ 4373
ent@@ 4322
by 4268
em@@ 4252
up 4244
ll@@ 4224
which 4177
wor@@ 4171
ec@@ 4128
h 4121
pl@@ 4094
E@@ 4092
because 4074
get 4039
d, 4029
en 4026
H@@ 4003
po@@ 3997
." 3995
O@@ 3985
king 3984
is@@ 3979
he 3976
there 3975
had 3972
D@@ 3959
fi@@ 3948
se 3939
We 3936
ation 3922
ra@@ 3904
su@@ 3902
when 3897
le 3891
z@@ 3866
C@@ 3852
per@@ 3834
ol@@ 3834
ate 3806
ul@@ 3804
This 3798
t, 3788
think 3782
's 3710
would 3708
how 3694
es@@ 3689
really 3661
I'm 3650
om@@ 3645
p 3637
ab@@ 3635
your 3631
see 3617
no@@ 3616
It's 3549
ap@@ 3546
wh@@ 3538
more 3537
P@@ 3535
ar 3534
ne@@ 3506
ph@@ 3502
ent 3495
do@@ 3490
il@@ 3440
were 3397
im@@ 3393
thing 3361
for@@ 3340
ur@@ 3318
their 3316
has 3316
ver@@ 3296
l 3294
L@@ 3289
who 3288
qu@@ 3239
ti@@ 3192
ter@@ 3180
1@@ 3177
some 3176
me 3174
You 3158
T@@ 3155
where 3138
that's 3135
don't 3124
then 3121
into 3099
ut@@ 3073
ta@@ 3060
pe@@ 3036
ally 3029
ds 3013
R@@ 3006
t. 3005
mi@@ 2987
c 2981
G@@ 2944
bi@@ 2925
ing@@ 2924
will 2923
tr@@ 2919
gi@@ 2914
and@@ 2911
them 2910
all@@ 2906
It 2902
N@@ 2899
op@@ 2883
actually 2881
pro@@ 2877
F@@ 2864
♫ 2830
o 2827
way 2817
ing, 2816
W@@ 2808
So, 2801
gh@@ 2793
gu@@ 2785
d. 2776
fac@@ 2770
know 2724
ts 2724
go 2718
pre@@ 2716
we@@ 2715
ed@@ 2707
want 2701
he@@ 2696
us 2674
bo@@ 2665
com@@ 2652
ther@@ 2629
ing. 2621
make 2620
could 2613
Th@@ 2601
been 2592
it. 2590
est 2569
ess 2562
sa@@ 2550
hi@@ 2546
re 2498
things 2496
got 2482
other 2467
de 2458
you@@ 2446
tu@@ 2444
I@@ 2433
ad 2411
da@@ 2405
f 2405
up@@ 2385
little 2384
cre@@ 2366
x@@ 2353
me@@ 2334
ion@@ 2331
able 2301
enc@@ 2292
min@@ 2289
ity 2283
come 2270
pi@@ 2259
ist@@ 2251
ks 2251
j@@ 2242
kind 2237
most 2216
ght 2211
know, 2205
av@@ 2203
than 2199
k, 2190
tion@@ 2189
something 2187
ers 2159
man@@ 2158
ked 2149
r 2147
ant@@ 2135
; 2131
w 2122
fe@@ 2115
They 2107
est@@ 2098
a, 2096
those 2067
bl@@ 2063
sp@@ 2060
et 2059
th 2058
we're 2057
look 2050
sc@@ 2029
ess@@ 2028
first 2027
mon@@ 2025
our@@ 2021
two 2013
Y@@ 2010
J@@ 2009
years 2009
iti@@ 2002
ment@@ 1994
par@@ 1987
gro@@ 1984
ch 1964
here 1961
no 1956
go@@ 1956
ine 1954
year@@ 1934
ence 1932
ot@@ 1931
ci@@ 1927
ed. 1921
wa@@ 1906
now 1903
new 1902
time 1900
only 1899
uti@@ 1892
ely 1891
oo@@ 1876
said, 1872
over 1860
lot 1857
ic 1857
ki@@ 1849
str@@ 1848
his 1847
car@@ 1846
a. 1842
der@@ 1830
also 1821
sion@@ 1820
happen@@ 1811
much 1804
ed, 1804
g 1798
e's 1797
age 1790
te@@ 1786
int@@ 1777
you're 1777
sol@@ 1770
ous 1766
back 1758
ical 1758
ste@@ 1755
take 1754
'@@ 1754
Now, 1749
coun@@ 1748
ell@@ 1747
cent@@ 1726
ded 1723
ated 1719
every@@ 1714
tion 1711
world 1707
k. 1705
In 1700
ce 1697
any 1681
What 1677
thing@@ 1674
it, 1666
put 1665
sel@@ 1662
er, 1655
0@@ 1653
oun@@ 1648
ob@@ 1647
need 1644
ite 1631
ting 1631
there's 1622
body 1620
ali@@ 1613
war@@ 1604
many 1603
right 1602
enti@@ 1597
even 1586
K@@ 1584
wat@@ 1576
2@@ 1575
tri@@ 1569
gre@@ 1560
did 1557
o, 1555
she 1553
st 1550
ast@@ 1542
any@@ 1533
br@@ 1526
ther 1524
ge 1524
Wh@@ 1520
gh 1520
der 1518
pa@@ 1513
around 1511
comp@@ 1506
old 1505
er. 1504
If 1501
el 1500
work 1494
mean@@ 1488
uc@@ 1487
tur@@ 1480
pla@@ 1478
hav@@ 1472
dis@@ 1471
ca@@ 1470
every 1464
've 1457
being 1450
ble 1447
ally, 1447
its 1441
some@@ 1437
thou@@ 1436
different 1431
same 1428
Well, 1424
good 1422
they're 1422
.@@ 1418
through 1411
ful 1410
sur@@ 1408
thin@@ 1407
ev@@ 1407
loo@@ 1404
so@@ 1395
use 1395
sy@@ 1393
pic@@ 1384
la@@ 1382
rit@@ 1379
Ch@@ 1375
ide@@ 1375
ying 1371
them@@ 1370
inter@@ 1357
called 1343
doing 1337
end@@ 1336
sci@@ 1336
hap@@ 1331
down 1328
sen@@ 1328
att@@ 1321
ey@@ 1319
lu@@ 1314
prob@@ 1313
That's 1313
se, 1311
spe@@ 1302
're 1297
cor@@ 1296
fin@@ 1295
liv@@ 1294
is, 1292
I've 1291
x 1290
stu@@ 1289
ir@@ 1285
ang@@ 1281
with@@ 1280
plan@@ 1277
tal@@ 1277
ber@@ 1275
lear@@ 1273
tra@@ 1271
anc@@ 1268
made 1265
came 1256
stor@@ 1251
day 1244
technolo@@ 1244
ever 1239
ation@@ 1235
ice 1234
her@@ 1232
righ@@ 1228
V@@ 1223
that, 1221
A 1220
three 1212
w, 1208
5@@ 1208
gen@@ 1205
ted 1202
o. 1202
ron@@ 1194
ati@@ 1192
ber 1192
He 1188
gra@@ 1187
say 1185
We@@ 1182
underst@@ 1182
ment 1174
cour@@ 1171
ion 1160
4@@ 1159
bas@@ 1156
wi@@ 1155
?" 1154
ating 1150
ze 1149
ni@@ 1148
'll 1148
ation. 1146
hu@@ 1145
ce@@ 1143
try 1143
There 1142
her 1142
bu@@ 1141
low@@ 1137
lif@@ 1132
ary 1132
ell 1131
sim@@ 1131
imag@@ 1128
cu@@ 1127
interest@@ 1126
peopl@@ 1125
human 1123
ys 1122
mor@@ 1122
cer@@ 1121
gy 1119
worl@@ 1119
last 1118
ture 1117
pri@@ 1117
gin@@ 1117
produc@@ 1116
know@@ 1115
ach@@ 1108
3@@ 1106
talk 1106
ation, 1106
pow@@ 1106
went 1105
sort 1105
tell 1103
ning 1094
why 1094
sion 1093
gg@@ 1084
U@@ 1077
ding 1077
ant 1076
ke@@ 1075
didn't 1075
bot@@ 1074
sm@@ 1073
pres@@ 1072
ear@@ 1072
tic@@ 1067
give 1066
life 1065
red 1064
os@@ 1060
find 1059
buil@@ 1059
can@@ 1057
beli@@ 1057
own 1055
ok 1054
used 1053
chang@@ 1052
we've 1050
fl@@ 1047
again@@ 1046
sit@@ 1045
ly, 1043
" 1041
can't 1037
ori@@ 1037
bac@@ 1034
hear@@ 1033
ff@@ 1027
that. 1026
Afric@@ 1025
should 1023
show 1021
started 1020
b 1012
great 1009
hel@@ 1005
,000 1004
befor@@ 1000
ese 998
am 998
you. 997
lin@@ 996
sch@@ 995
bra@@ 993
say, 989
big 988
after 986
plac@@ 986
't 986
ves 984
rel@@ 979
ave 975
percent 973
on. 973
au@@ 970
of@@ 970
19@@ 970
tre@@ 964
another 963
problem@@ 963
star@@ 963
That 960
ric@@ 958
8@@ 957
ru@@ 957
oc@@ 951
lar@@ 950
end 949
mu@@ 948
ke 946
An@@ 943
cont@@ 940
this. 937
en, 937
form@@ 935
6@@ 935
never 935
n't 934
other@@ 929
lik@@ 929
fun@@ 929
ll 928
bit 927
part 927
re. 927
speci@@ 926
air@@ 924
ard 922
port@@ 921
9@@ 919
read@@ 918
start 918
peri@@ 916
ood 915
ether 911
um@@ 910
h, 908
pen@@ 905
whole 904
child@@ 901
bre@@ 900
won@@ 900
fo@@ 899
idea 898
ral 895
ea@@ 895
ai@@ 895
ance 894
cit@@ 893
kes 893
might 892
looking 891
change 891
was@@ 890
als 890
wn@@ 890
tt@@ 889
struc@@ 889
clo@@ 888
ations 887
mov@@ 886
tog@@ 884
gn@@ 880
next 878
mar@@ 875
ow@@ 874
self@@ 873
build@@ 873
num@@ 873
," 871
fam@@ 870
few 868
ast 865
Because 864
on, 863
5 862
lit@@ 861
does 858
ain@@ 857
ey 857
here, 857
ous@@ 854
gr@@ 853
il 853
out@@ 853
e? 852
still 851
ust 850
per 847
here. 847
nec@@ 846
son@@ 843
When 843
trans@@ 840
Now 839
fu@@ 839
comes 839
commun@@ 839
coll@@ 838
cap@@ 837
world. 837
int 837
each 836
al. 835
there. 834
secon@@ 834
develo@@ 834
St@@ 833
mat@@ 833
tor@@ 832
igh@@ 832
tim@@ 829
7@@ 829
them. 822
off@@ 820
mark@@ 820
partic@@ 819
Thank 818
jec@@ 814
the@@ 814
mer@@ 810
al, 810
between 809
doesn't 809
off 808
rem@@ 807
ound 807
this, 807
How 807
dic@@ 806
les 804
way, 804
man 802
gener@@ 800
design@@ 798
ful@@ 797
thought 795
le. 795
pos@@ 794
reas@@ 794
re, 793
cas@@ 793
eve 789
fre@@ 788
million 788
0 787
ably 787
wanted 786
ye@@ 785
met@@ 783
se. 783
long 782
cur@@ 781
tw@@ 779
ener@@ 779
ned 779
ak@@ 778
vol@@ 777
said 776
dent@@ 776
ici@@ 775
’@@ 772
deci@@ 770
thing. 770
natu@@ 770
me, 769
pul@@ 769
por@@ 767
son 767
shi@@ 766
call 765
important 756
system@@ 756
dre@@ 751
Americ@@ 750
! 749
ybe 748
time, 747
jo@@ 747
always 746
ep 744
kin@@ 739
possi@@ 739
ros@@ 736
time. 736
ani@@ 735
OK@@ 735
trying 734
cl@@ 733
projec@@ 729
ari@@ 729
ys, 727
I'll 725
hom@@ 725
tly 722
proc@@ 722
real 721
w. 718
There's 717
ve@@ 717
ter 717
fa@@ 717
fri@@ 716
differ@@ 716
lim@@ 715
serv@@ 715
may 714
place 713
and, 713
what's 710
better 709
question@@ 709
ven 708
are@@ 708
ace 705
ligh@@ 705
dollar@@ 703
sub@@ 703
dn't 702
show@@ 700
th. 700
eff@@ 697
un 696
low 695
le, 694
bor@@ 693
sup@@ 692
ne 690
acc@@ 690
10 690
ure 689
ft 688
gett@@ 687
00 686
let@@ 686
ep@@ 685
get@@ 683
lon@@ 681
har@@ 680
ue 676
eng@@ 675
atu@@ 674
I'@@ 673
ame 672
ten@@ 672
inc@@ 670
val@@ 670
univer@@ 670
econom@@ 668
olog@@ 668
lat@@ 667
ry 667
az@@ 667
vit@@ 666
ans@@ 664
et. 662
in. 662
ong 661
over@@ 660
cul@@ 651
ational 649
ick@@ 648
e-@@ 648
mom@@ 645
wn 644
in, 642
ach 639
one. 638
ase 635
soci@@ 634
inform@@ 633
vent@@ 630
ative 628
ill@@ 626
fut@@ 624
Indi@@ 621
og@@ 619
spi@@ 616
pr@@ 614
sing@@ 610
te 609
ig@@ 608
net@@ 608
evol@@ 607
spen@@ 606
pp@@ 605
person@@ 601
pu@@ 599
design 597
ere 594
an, 592
nam@@ 588
comput@@ 587
ement@@ 586
one, 582
stri@@ 581
cam@@ 578
tiv@@ 572
respon@@ 570
busin@@ 569
so, 567
abilit@@ 565
ren@@ 563
inf@@ 560
fer@@ 557
duc@@ 557
mus@@ 557
gover@@ 556
dit@@ 549
chi@@ 549
eg@@ 549
col@@ 549
me. 548
ser@@ 547
anim@@ 547
sum@@ 546
pas@@ 546
las@@ 546
quest@@ 545
medi@@ 543
No@@ 536
don@@ 536
den@@ 536
atter@@ 533
part@@ 532
pol@@ 532
In@@ 530
TE@@ 529
glob@@ 529
... 528
20 527
fil@@ 527
50 526
they@@ 526
alt@@ 525
compl@@ 523
lan@@ 522
plic@@ 522
amp@@ 520
Go@@ 519
ator@@ 518
actu@@ 517
insi@@ 517
af@@ 516
sign@@ 514
organi@@ 513
lev@@ 512
stre@@ 512
tec@@ 511
sor@@ 509
ge@@ 509
ell, 508
ore 506
Ma@@ 505
qui@@ 505
ran@@ 502
cell@@ 499
vide@@ 498
nor@@ 497
thre@@ 495
e: 494
sul@@ 494
inv@@ 492
rac@@ 492
pub@@ 492
Mar@@ 485
fron@@ 483
incredi@@ 480
blo@@ 479
stud@@ 477
bri@@ 471
org@@ 471
2 470
du@@ 468
New 466
if@@ 466
far@@ 465
od 465
bod@@ 465
seri@@ 462
dire@@ 462
Inter@@ 460
mis@@ 456
present@@ 453
tro@@ 453
de, 453
fic@@ 451
do. 449
complet@@ 449
mas@@ 449
i 449
de. 444
ris@@ 444
ank 443
oce@@ 443
import@@ 442
succ@@ 441
ale 441
cos@@ 436
ute 436
ile 436
D 434
sic@@ 431
Unit@@ 430
prof@@ 430
ass@@ 430
that@@ 430
sin@@ 428
under@@ 428
uro@@ 427
ata 427
[@@ 426
20@@ 424
00@@ 423
want@@ 423
societ@@ 423
vir@@ 423
mem@@ 422
mill@@ 421
rou@@ 420
comm@@ 420
reg@@ 418
pot@@ 417
Al@@ 414
polit@@ 414
200@@ 414
ill 413
coul@@ 412
rat@@ 411
som@@ 411
eri@@ 407
ece 407
rag@@ 405
id@@ 404
cat@@ 403
indu@@ 400
mic@@ 399
ner@@ 396
materi@@ 395
caus@@ 395
contro@@ 394
otogra@@ 393
100 391
ram@@ 391
' 390
dat@@ 389
arti@@ 388
tem@@ 385
mag@@ 384
imp@@ 383
] 383
continu@@ 382
aut@@ 382
is. 382
riv@@ 381
ver 381
oper@@ 380
leg@@ 379
far 378
ways 377
computer 377
incre@@ 372
archit@@ 371
ut 371
sist@@ 371
bar@@ 369
individu@@ 367
stori@@ 364
,@@ 364
med@@ 364
ven@@ 363
nov@@ 361
arch@@ 359
30 358
ich@@ 358
dist@@ 358
bilit@@ 351
vari@@ 351
ust@@ 350
kno@@ 350
fort@@ 348
intell@@ 346
mol@@ 342
ose 340
8 340
cir@@ 340
vo@@ 338
ere's 333
diff@@ 332
anti@@ 325
ordin@@ 323
qual@@ 322
do, 321
positi@@ 311
bet@@ 310
fir@@ 309
ett@@ 308
ow 308
ate, 307
pai@@ 302
mal@@ 302
program@@ 300
vic@@ 299
fro@@ 299
are, 297
call@@ 297
dar@@ 296
aff@@ 295
atic@@ 294
aver@@ 292
ativ@@ 292
pan@@ 292
Be@@ 291
wit@@ 291
ever@@ 291
Con@@ 284
defin@@ 284
gli@@ 283
ben@@ 282
ann@@ 281
iment@@ 281
ere, 279
Z@@ 279
Di@@ 278
1 276
are. 275
state 273
ld 271
at's 268
ate. 267
dur@@ 266
3 262
uni@@ 262
test@@ 261
4 259
stra@@ 258
ulti@@ 258
studi@@ 258
ssi@@ 257
men@@ 257
colo@@ 255
tech@@ 255
del 255
7 252
olo@@ 252
ople 251
u 251
6 250
ament@@ 249
ov@@ 248
dimen@@ 248
diver@@ 245
fel@@ 245
abor@@ 242
ina 242
stru@@ 240
Af@@ 239
Ne@@ 237
tele@@ 234
i, 234
itu@@ 233
ved@@ 232
consi@@ 231
throu@@ 231
ific@@ 229
sem@@ 227
ia 223
cost@@ 222
pag@@ 222
V 221
ica 218
rest@@ 215
post@@ 215
prov@@ 214
!@@ 213
to, 213
super@@ 209
It@@ 208
S 206
princi@@ 206
cal@@ 205
ele@@ 203
grand@@ 203
ich 201
9 199
Com@@ 197
disc@@ 197
ini@@ 197
zz@@ 194
Un@@ 194
era 194
ness@@ 193
amb@@ 192
sal@@ 191
ere@@ 186
ove 184
la 184
not@@ 179
pass@@ 177
sop@@ 176
dev@@ 174
des@@ 171
possibi@@ 170
da 170
sco@@ 169
luc@@ 169
ogra@@ 169
ir 168
essi@@ 168
pet@@ 167
ould 167
Amer@@ 166
to. 166
viv@@ 166
ete 163
alc@@ 162
lav@@ 162
lun@@ 160
no, 157
fine 154
cin@@ 151
que 150
gn 149
i. 147
ho 146
termin@@ 146
econ@@ 145
contin@@ 144
ild@@ 142
X@@ 139
desi@@ 138
/@@ 137
abi@@ 136
C 136
pren@@ 135
ole 135
Per@@ 134
bus@@ 133
doll@@ 130
cause 128
T 127
rap@@ 127
ma 124
anz@@ 124
tra 123
lob@@ 121
z 119
acci@@ 119
controll@@ 114
scu@@ 112
ale. 111
attr@@ 111
tle 110
atur@@ 109
ra 107
occu@@ 107
Qu@@ 107
o: 107
nu@@ 104
bile 104
ero 102
inci@@ 102
natur@@ 102
ene 101
so. 100
contr@@ 98
q@@ 98
ire 95
propri@@ 95
ai 95
pun@@ 89
ha 89
con 87
$@@ 86
P 86
mac@@ 85
a: 85
edi@@ 84
fos@@ 83
arriv@@ 83
spon@@ 83
ale, 82
All@@ 81
etter 80
sai@@ 80
tras@@ 79
fat@@ 78
K 77
no. 76
O 75
]@@ 75
nex@@ 74
stem@@ 74
Come 71
indi@@ 70
na 69
nolo@@ 66
acqu@@ 64
guar@@ 64
bell@@ 63
parti@@ 62
..@@ 61
a? 60
ta 59
enz@@ 58
sia 58
gram@@ 58
ambi@@ 56
?@@ 56
q 55
B 54
nel 54
nost@@ 54
X 52
due 52
di 52
pens@@ 51
pian@@ 51
E 51
ord@@ 49
Q@@ 49
ra, 48
Pen@@ 48
sper@@ 48
ro 47
abb@@ 47
li 47
o? 46
M 45
R 45
uman@@ 45
&@@ 43
zi@@ 43
ato 43
:@@ 43
ano 42
vor@@ 41
ola 40
does@@ 40
;@@ 39
L 39
forma@@ 39
ra. 38
dot@@ 38
N 38
velo@@ 37
cc@@ 37
ri 36
- 35
betwe@@ 35
La 35
io 34
sar@@ 34
ani 33
co, 33
asp@@ 33
iti 32
gran@@ 32
dal 32
[ 32
v 31
ita 29
fare 29
che 28
razi@@ 28
F 27
tut@@ 27
azz@@ 26
etti 26
ou 26
H 26
co. 26
ello 25
opl@@ 25
ini 25
G 25
ari 24
altr@@ 24
va 24
gi 24
ico 24
ino 23
numer@@ 23
Y 22
ario 22
000 21
lo 21
Pot@@ 20
mo 20
Q 19
lavor@@ 19
senti@@ 18
é@@ 18
mili@@ 18
fon@@ 18
ito 18
mi 18
ati 18
lo. 17
Z 17
ali 17
d'@@ 16
% 16
una 16
) 15
fatt@@ 15
co 15
sa 15
si 14
ica, 14
ro, 14
U 14
ora 13
ca 13
pes@@ 13
etti@@ 13
atti@@ 13
li. 13
sta 13
legg@@ 13
W 12
ci 12
ica. 12
det@@ 12
ö@@ 12
nell@@ 11
ori 11
muc@@ 11
perc@@ 11
blem@@ 11
solo 11
Ed 11
#@@ 11
ti 11
si, 10
ro. 10
uto 10
ni 10
/ 10
capi@@ 10
fu 10
J 10
é 10
ono 9
perch@@ 9
della 9
guard@@ 9
aggi@@ 9
po 8
". 8
endo 8
ali, 8
eva 8
ete, 8
á@@ 8
l'@@ 8
non 8
Quest@@ 8
osc@@ 8
— 8
cose 8
Il 7
oi 7
chi 7
uro 7
ali. 7
che, 7
ava 6
si. 6
fa 6
quel 6
Tut@@ 6
ó 6
ato, 6
dove 6
– 6
agli@@ 6
ù 5
(@@ 5
ando 5
+ 5
etto 5
vo 5
j 5
ante 5
zza 5
po, 5
mia 5
ü@@ 5
eri 5
ù@@ 4
gia 4
Cos@@ 4
circa 4
po. 4
ente 4
dire 4
ei 4
í@@ 4
esi 4
azi@@ 4
è@@ 4
uno 4
avo 4
vi 4
uti 4
ã@@ 4
indi 4
amo 3
anti 3
Per 3
+@@ 3
ñ@@ 3
enza 3
esse 3
oni 3
tempo 3
ano, 3
Le 3
amento 3
=@@ 3
impar@@ 3
L'@@ 3
parl@@ 3
@@@ 3
rius@@ 3
vu@@ 3
ä@@ 3
ede 3
ato. 3
^@@ 3
dav@@ 3
indi, 3
â@@ 2
segu@@ 2
ï@@ 2
qui 2
ppo 2
oro 2
alla 2
* 2
É@@ 2
anza 2
ento 2
svi@@ 2
ti, 2
Sono 2
vidu@@ 2
chio 2
prima 2
emo 2
ć 1
e' 1
sap@@ 1
abbi@@ 1
anche 1
Una 1
ente. 1
Ho 1
Ma 1
bamb@@ 1
strut@@ 1
enti 1
º@@ 1
anto 1
˚ 1
igli@@ 1
’ 1
…@@ 1
anni 1
–@@ 1
ò@@ 1
à@@ 1
ê@@ 1
rei 1
essi 1
—@@ 1
sul 1
cerv@@ 1
ano. 1
ó@@ 1
sei 1
£@@ 1
# 1
ā@@ 1
ç@@ 1
Ç@@ 1
olo 1
dov@@ 1
sare@@ 1
c'@@ 1
sull@@ 1
à 1
