a 56666
di 56002
e 51070
che 46510
i 35191
o 30744
la 27401
un 26088
è 25919
il 24116
in 23565
are 20535
per 18790
i@@ 17553
s@@ 17492
una 17098
t@@ 15685
o, 15594
non 15417
a. 15312
ri@@ 15311
in@@ 15173
e, 14866
le 14832
a, 14721
si 14543
ar@@ 14081
e. 13968
ato 13884
o. 13760
d@@ 13652
, 13549
E 13484
di@@ 12820
. 12796
o@@ 12154
e@@ 12082
er@@ 11909
or@@ 11865
l'@@ 11388
b@@ 11363
st@@ 11241
da 11183
to 10975
c@@ 10714
sono 10653
u@@ 10481
vi@@ 10264
f@@ 10176
g@@ 10032
i, 9874
gi@@ 9850
r@@ 9789
pi@@ 9686
an@@ 9672
at@@ 9475
av@@ 9463
S@@ 9337
ano 9336
i. 9247
a@@ 9235
del 9196
ci@@ 9054
re@@ 9015
m@@ 8948
se 8934
v@@ 8899
come 8865
p@@ 8847
es@@ 8840
n@@ 8801
con 8738
l@@ 8524
"@@ 8420
si@@ 8285
ere 8014
questo 7975
più 7940
en@@ 7846
ma 7835
con@@ 7787
it@@ 7786
on@@ 7780
al@@ 7742
ci 7732
so 7494
am@@ 7450
lo 7416
C@@ 7376
della 7308
et@@ 7212
sc@@ 7048
qu@@ 6936
mi 6913
li@@ 6881
ic@@ 6695
de@@ 6610
D@@ 6478
co@@ 6446
pro@@ 6361
amo 6168
ha 6020
à 5928
P@@ 5914
chi@@ 5914
po@@ 5899
as@@ 5875
al 5861
per@@ 5837
ent@@ 5814
ale 5676
nel 5673
ol@@ 5615
ti@@ 5490
un@@ 5402
gli 5373
ati 5360
re 5335
A@@ 5292
im@@ 5287
ver@@ 5255
ti 5242
ro@@ 5200
era 5199
: 5136
amente 5133
bi@@ 5133
ate 5026
-- 5025
ac@@ 5020
par@@ 4902
pre@@ 4795
ho 4775
Ma 4749
mo@@ 4742
us@@ 4716
zione 4707
est@@ 4693
questa 4686
M@@ 4670
cosa 4661
molto 4630
ando 4593
su@@ 4523
dei 4478
ono 4477
os@@ 4465
'@@ 4416
ica 4409
for@@ 4391
ità 4376
ut@@ 4375
vi 4356
delle 4347
do 4333
te 4322
ap@@ 4274
uno 4262
em@@ 4227
col@@ 4191
B@@ 4164
ett@@ 4150
N@@ 4145
zz@@ 4140
ter@@ 4131
fi@@ 4126
E@@ 4110
com@@ 4108
abbiamo 4106
pot@@ 4086
att@@ 4046
alla 4037
sol@@ 4035
ess@@ 4035
mi@@ 4034
Non 4014
cui 4007
vol@@ 4002
ore 3976
z@@ 3958
V@@ 3955
essere 3944
cre@@ 3937
ra@@ 3935
O@@ 3911
? 3911
do@@ 3907
azione 3862
ata 3852
man@@ 3814
el@@ 3777
li 3753
anche 3731
ò 3707
anno 3664
cor@@ 3633
mo 3588
ma@@ 3584
quando 3575
G@@ 3566
ra 3551
all@@ 3542
ag@@ 3524
ot@@ 3501
La 3470
ant@@ 3464
loro 3459
se@@ 3458
perché 3457
ai 3412
ad 3403
og@@ 3400
T@@ 3397
dell'@@ 3396
no@@ 3382
ne 3354
zi@@ 3337
ec@@ 3310
hanno 3290
fare 3279
dic@@ 3234
ch@@ 3226
solo 3215
ur@@ 3188
sta 3182
ta 3141
ric@@ 3140
su 3131
persone 3119
ante 3097
Il 3095
port@@ 3066
io 3062
ell@@ 3041
tu@@ 3039
tutto 3031
far@@ 3021
no 3016
un'@@ 3011
1@@ 3008
quello 3004
R@@ 2998
L@@ 2997
and@@ 2995
va 2995
h@@ 2972
ist@@ 2957
cos@@ 2955
met@@ 2955
ment@@ 2953
ente 2949
der@@ 2930
così 2928
inter@@ 2927
enza 2894
ca@@ 2886
ven@@ 2882
endo 2880
tutti 2824
is@@ 2817
ad@@ 2815
I@@ 2811
ori@@ 2807
nella 2772
ori 2761
min@@ 2753
pe@@ 2746
F@@ 2719
sia 2716
pens@@ 2715
ro 2711
ed 2691
modo 2688
sp@@ 2679
lu@@ 2634
ser@@ 2622
H@@ 2620
de 2610
anni 2610
ali 2591
ll@@ 2591
ete 2590
siamo 2583
om@@ 2573
ev@@ 2569
♫ 2560
ciò 2550
Questo 2543
queste 2504
cer@@ 2496
enti 2487
uto 2482
cose 2469
questi 2469
fatto 2462
ing@@ 2452
cont@@ 2448
dov@@ 2447
ora 2431
ast@@ 2426
E' 2416
ento 2405
ico 2401
me 2390
all'@@ 2387
fic@@ 2385
ov@@ 2379
car@@ 2378
tr@@ 2364
ari@@ 2343
fin@@ 2335
dis@@ 2334
pen@@ 2325
enz@@ 2308
-@@ 2305
stato 2300
ni@@ 2295
gior@@ 2291
oc@@ 2289
rit@@ 2287
mio 2286
pri@@ 2262
fer@@ 2258
ogni 2249
Qu@@ 2246
' 2232
br@@ 2221
gra@@ 2216
ed@@ 2213
ve@@ 2208
- 2197
qual@@ 2196
str@@ 2188
esso 2173
ament@@ 2172
parte 2171
... 2164
fon@@ 2164
alt@@ 2160
diver@@ 2152
mia 2147
gu@@ 2143
te@@ 2131
due 2128
cent@@ 2112
sione 2111
le@@ 2105
sa@@ 2099
chi 2095
ale. 2084
." 2083
parl@@ 2082
ve 2078
ino 2051
cas@@ 2049
bu@@ 2049
quest@@ 2028
lo@@ 2023
person@@ 2023
int@@ 2022
sto 2018
eg@@ 2010
c'è 2008
gli@@ 2007
to@@ 2007
Quindi 2006
succ@@ 2005
mondo 1996
alle 1995
.@@ 1994
prima 1988
tut@@ 1981
er 1971
" 1968
dove 1963
anti 1961
mer@@ 1961
sci@@ 1953
tt@@ 1944
é 1943
può 1929
tiv@@ 1927
sap@@ 1909
dal 1900
chiam@@ 1898
zion@@ 1895
inizi@@ 1893
pr@@ 1889
oi 1885
poi 1866
ati@@ 1863
pa@@ 1859
mon@@ 1858
azion@@ 1841
qualcosa 1840
lavor@@ 1837
me@@ 1831
ass@@ 1821
sul 1821
cambi@@ 1818
ul@@ 1813
ello 1807
gen@@ 1802
ero 1800
fac@@ 1796
nuov@@ 1762
gia 1761
end@@ 1754
In 1751
ava 1749
ina 1748
uc@@ 1745
ine 1744
ari 1742
almente 1739
ale, 1738
k@@ 1737
tra 1734
gn@@ 1734
pos@@ 1733
Se 1729
acc@@ 1728
noi 1727
à, 1725
sion@@ 1723
migli@@ 1715
import@@ 1701
trov@@ 1697
iamo 1694
are. 1688
op@@ 1686
zioni 1685
tre 1667
sulla 1662
vit@@ 1656
". 1653
degli 1650
rebbe 1649
ten@@ 1647
sa 1647
qui 1646
sco@@ 1643
ne@@ 1634
mostr@@ 1633
ris@@ 1623
abi@@ 1615
quel 1615
tem@@ 1612
2@@ 1609
picco@@ 1608
o? 1604
mai 1601
Questa 1596
vedere 1590
diamo 1589
quella 1586
aggi@@ 1584
ato. 1583
rag@@ 1583
ire 1580
L'@@ 1580
etto 1576
cam@@ 1563
anza 1563
davvero 1555
re, 1554
can@@ 1549
cu@@ 1535
so@@ 1533
comun@@ 1524
cap@@ 1519
po 1516
co. 1515
vo 1512
por@@ 1512
peri@@ 1511
eff@@ 1501
anz@@ 1498
ai@@ 1496
co, 1495
meno 1494
U@@ 1493
divent@@ 1485
du@@ 1460
ancora 1458
gh@@ 1458
0@@ 1457
amento 1457
sen@@ 1450
anti@@ 1442
dalla 1442
ato, 1442
facci@@ 1441
etti@@ 1439
do. 1437
do, 1436
pol@@ 1426
possiamo 1426
co 1424
costru@@ 1424
aff@@ 1424
pres@@ 1423
y@@ 1420
vita 1417
sar@@ 1415
post@@ 1415
È 1414
mor@@ 1413
altro 1411
semplic@@ 1406
ff@@ 1395
ab@@ 1381
stra@@ 1381
quanto 1379
nostro 1378
grande 1376
tro@@ 1374
possibi@@ 1373
uman@@ 1368
azioni 1363
il@@ 1359
ca 1357
fa 1354
pu@@ 1352
avev@@ 1350
ici 1347
are, 1347
sor@@ 1346
dur@@ 1343
tras@@ 1337
ini 1329
gente 1324
Sono 1322
eva 1322
5@@ 1319
ion@@ 1316
Ho 1311
acci@@ 1311
sempre 1309
l 1308
ole 1308
da@@ 1305
d'@@ 1302
tecnolo@@ 1301
Per 1300
alizz@@ 1297
K@@ 1294
erano 1293
Ed 1289
coll@@ 1288
one 1281
suo 1275
no. 1274
ici@@ 1269
no, 1269
Ci 1264
nostra 1264
dent@@ 1257
acqu@@ 1252
ide@@ 1252
ce 1250
nell'@@ 1250
pass@@ 1250
ben@@ 1249
W@@ 1248
dire 1248
to, 1244
e? 1244
guar@@ 1242
vostr@@ 1242
I 1240
mat@@ 1238
gran@@ 1238
In@@ 1235
guard@@ 1234
ved@@ 1231
abb@@ 1229
uti@@ 1227
J@@ 1225
tutte 1222
ra, 1219
sua 1219
h, 1219
igli@@ 1216
interess@@ 1216
asi 1216
ra. 1214
ia 1213
comp@@ 1204
A 1203
tipo 1201
rei 1200
pp@@ 1197
prend@@ 1196
avere 1196
tempo 1193
e' 1191
arriv@@ 1187
qualche 1178
pren@@ 1177
mol@@ 1175
Si 1174
sign@@ 1173
secon@@ 1172
ssi@@ 1169
ber@@ 1167
tor@@ 1161
don@@ 1158
sull@@ 1157
circa 1157
na 1155
4@@ 1152
le. 1152
rac@@ 1149
proprio 1149
essi@@ 1147
problem@@ 1146
sot@@ 1146
nei 1145
olo 1145
prov@@ 1144
senza 1142
ene 1137
ogli@@ 1136
ito 1136
dopo 1134
Abbiamo 1134
pi 1134
St@@ 1133
Perché 1131
esempi@@ 1130
idea 1124
sal@@ 1124
vo@@ 1120
doman@@ 1120
dere 1120
voi 1119
funzion@@ 1118
ola 1118
che, 1117
mett@@ 1116
cominci@@ 1116
quell@@ 1113
quindi 1112
are@@ 1111
spi@@ 1107
?" 1106
3@@ 1105
pl@@ 1105
fu@@ 1100
inv@@ 1092
à. 1092
contr@@ 1092
nu@@ 1091
bas@@ 1090
ulti@@ 1089
t 1089
cin@@ 1087
ir@@ 1087
sic@@ 1085
altra 1084
gener@@ 1083
aggio 1081
stata 1079
mom@@ 1076
lo. 1071
volta 1068
possono 1068
esse 1063
cit@@ 1062
! 1060
diff@@ 1060
evo 1058
ragazz@@ 1058
on 1057
ren@@ 1055
esi 1054
punto 1054
avo 1053
ru@@ 1052
gi 1051
Le 1050
altri 1050
aut@@ 1049
ali@@ 1048
o: 1047
ì 1044
lun@@ 1041
go 1041
po' 1041
avano 1039
mar@@ 1036
cerc@@ 1035
rest@@ 1035
des@@ 1031
nelle 1031
5 1030
e: 1026
'è 1026
asp@@ 1026
ei 1024
serv@@ 1023
An@@ 1022
zzo 1021
Come 1019
atti@@ 1018
Per@@ 1018
n 1013
tratt@@ 1013
molti 1012
essa 1009
emente 1008
ì, 1006
mili@@ 1004
enzi@@ 1002
po, 1001
ener@@ 1000
au@@ 998
fatt@@ 991
Ora, 990
agli@@ 989
sit@@ 989
è@@ 988
gono 988
amente, 985
Quando 984
senti@@ 983
8@@ 981
stru@@ 981
ita 979
stesso 975
gg@@ 974
cell@@ 967
forma@@ 966
Mi 965
cal@@ 963
present@@ 962
ro. 962
ì@@ 962
iti 961
pag@@ 960
essi 960
d 956
fam@@ 953
vent@@ 952
dall'@@ 952
ness@@ 951
deci@@ 951
fil@@ 951
pian@@ 946
sop@@ 946
uti 946
Un 944
altre 942
sembr@@ 940
dire@@ 940
ig@@ 939
gr@@ 936
segu@@ 934
perch@@ 933
6@@ 932
negli 931
bisogno 931
indi@@ 931
a? 929
be@@ 927
uom@@ 926
bile 926
mal@@ 925
potete 923
sistema 921
All@@ 920
Quest@@ 919
nostri 918
c'@@ 918
reg@@ 918
bell@@ 917
proc@@ 917
storia 916
cost@@ 916
to. 916
etti 912
ite 912
svilu@@ 912
zza 912
remmo 911
Così 911
u 911
viene 911
ust@@ 910
vic@@ 908
re. 906
el 906
000 905
so, 900
arti@@ 900
9@@ 897
Grazi@@ 896
qualc@@ 894
viv@@ 894
voglio 892
natur@@ 890
Ecco 890
Cos@@ 887
test@@ 887
; 886
fat@@ 885
citt@@ 885
ambi@@ 883
edi@@ 883
attraver@@ 883
get@@ 883
maggi@@ 882
fuori 881
ente. 878
w@@ 876
lit@@ 876
zione. 875
agli 875
Quindi, 874
ese 873
ro, 871
medi@@ 871
or 870
ano. 870
stiamo 869
lin@@ 868
Pen@@ 867
dot@@ 866
unque 865
pun@@ 864
parti@@ 862
stanno 861
rat@@ 861
rius@@ 857
mus@@ 857
pubbl@@ 855
eri@@ 852
y 852
ani 852
dete 851
andare 851
po. 851
m 851
abbi@@ 849
ete, 849
id@@ 849
so. 848
lasci@@ 844
evol@@ 842
’@@ 841
cono 841
bamb@@ 841
grup@@ 840
mentre 840
differ@@ 839
mu@@ 838
aveva 837
posto 837
visto 837
numer@@ 835
continu@@ 835
fosse 835
7@@ 835
sarebbe 834
s 833
Ch@@ 831
ere@@ 831
fino 830
val@@ 830
econom@@ 829
Tut@@ 828
uro@@ 826
ante. 825
quale 825
fu 825
sost@@ 822
verso 821
macch@@ 820
mento 820
0 818
tura 814
vu@@ 812
alcuni 811
milioni 811
lavoro 810
ti, 809
stri@@ 808
Be@@ 808
ario 807
proget@@ 804
lmente 801
immagin@@ 800
dello 798
Una 796
19@@ 796
penso 796
strut@@ 795
sper@@ 795
cat@@ 794
son@@ 794
tra@@ 794
spazi@@ 793
vogli@@ 792
inf@@ 791
azione. 791
plic@@ 791
fine 789
avete 788
anim@@ 788
gioc@@ 787
ano, 785
problema 783
fo@@ 782
stori@@ 779
pes@@ 779
legg@@ 778
atter@@ 777
ede 775
ece 774
quelle 773
ali. 772
sioni 770
sei 770
spon@@ 770
cerv@@ 770
impar@@ 768
immag@@ 766
scu@@ 766
if@@ 763
creare 763
itu@@ 760
ron@@ 760
super@@ 759
prob@@ 758
insiem@@ 757
insegn@@ 757
primo 756
glio 755
ica. 755
00 754
già 752
anni. 750
mente 750
ific@@ 749
credo 749
capi@@ 749
ità. 749
atto 747
Afric@@ 743
ione 743
riv@@ 742
dav@@ 740
ri 740
det@@ 740
rap@@ 739
pas@@ 738
Pot@@ 738
mondo. 738
specie 738
conosc@@ 737
li. 736
evano 735
sim@@ 735
uro 732
tanto 731
molte 731
aiut@@ 731
an 729
eri 727
disc@@ 727
segn@@ 727
anni, 726
gre@@ 725
ali, 725
ace 723
zione, 721
detto 720
ppo 720
ica, 719
realtà 718
que 717
si, 717
si. 716
soci@@ 716
emo 715
capire 715
volte 715
gett@@ 714
Lo 714
miei 713
rebbero 713
a: 712
chio 710
bambini 710
ricer@@ 710
ang@@ 710
nost@@ 709
nell@@ 709
sul@@ 708
termin@@ 707
studi@@ 704
ò@@ 701
Al@@ 699
le, 698
ran@@ 698
ob@@ 696
ani@@ 696
bar@@ 695
ta@@ 691
vor@@ 690
é@@ 688
ù@@ 687
ill@@ 685
he 683
bbiamo 683
ni 682
fut@@ 681
k 681
part@@ 678
velo@@ 677
propri@@ 677
speci@@ 677
occu@@ 675
enti@@ 673
form@@ 672
mag@@ 671
bbe 669
ce@@ 668
iment@@ 667
incredi@@ 666
alcun@@ 664
inc@@ 663
som@@ 657
univer@@ 654
bo@@ 652
attr@@ 651
luc@@ 650
dit@@ 649
complet@@ 646
pic@@ 644
ord@@ 640
leg@@ 639
ini@@ 639
fre@@ 638
sist@@ 634
Di@@ 632
% 629
2 628
rel@@ 628
liv@@ 626
consi@@ 626
ativ@@ 625
atu@@ 624
fel@@ 623
stu@@ 621
10 620
pet@@ 617
materi@@ 611
azz@@ 605
ram@@ 604
lav@@ 602
ove 599
sch@@ 596
dev@@ 596
controll@@ 595
den@@ 594
not@@ 588
Y@@ 586
iti@@ 584
ich@@ 582
oper@@ 581
colo@@ 580
ate, 579
atic@@ 574
org@@ 574
atur@@ 572
fron@@ 571
princi@@ 570
dist@@ 569
far 562
program@@ 559
go@@ 557
nor@@ 556
gover@@ 556
olo@@ 556
de. 552
alc@@ 551
organi@@ 550
sistem@@ 545
compl@@ 545
amp@@ 544
vide@@ 543
cir@@ 542
cul@@ 542
doll@@ 541
amb@@ 541
dell@@ 537
TE@@ 535
seri@@ 535
ù 534
sem@@ 529
pan@@ 527
50 527
caus@@ 527
lan@@ 524
ere, 522
tri@@ 521
Indi@@ 521
ordin@@ 520
dimen@@ 520
se, 520
tele@@ 519
fos@@ 518
intell@@ 517
Un@@ 516
k, 516
h 514
let@@ 512
men@@ 512
Com@@ 508
abor@@ 506
qui@@ 504
cur@@ 501
fl@@ 499
vero 498
state 498
vir@@ 497
Con@@ 493
20 492
ate. 491
societ@@ 487
dar@@ 485
lim@@ 484
ator@@ 483
abilit@@ 481
tal@@ 480
fort@@ 478
nec@@ 477
nov@@ 476
de, 476
glob@@ 474
r 472
oni 471
No@@ 470
y, 467
defin@@ 459
bre@@ 458
Mar@@ 458
me, 457
polit@@ 452
..@@ 452
3 452
4 451
inci@@ 449
ché 448
med@@ 448
ner@@ 447
s, 445
bri@@ 444
x@@ 444
computer 444
anc@@ 442
oro 442
indu@@ 435
otogra@@ 435
positi@@ 432
pai@@ 430
azi@@ 427
dat@@ 423
question@@ 422
osc@@ 418
oce@@ 418
mem@@ 418
spe@@ 417
um@@ 416
cc@@ 415
,@@ 414
imp@@ 411
8 411
bilit@@ 410
ann@@ 409
fe@@ 409
200@@ 409
desi@@ 409
sin@@ 408
hi@@ 407
6 405
ement@@ 404
mas@@ 400
20@@ 399
à@@ 398
las@@ 398
bl@@ 391
New 391
lon@@ 390
er, 389
is 389
bisog@@ 385
net@@ 384
cl@@ 384
comput@@ 381
blo@@ 381
ge@@ 381
g 379
olog@@ 379
sur@@ 376
prof@@ 374
archit@@ 372
bbero 371
vari@@ 369
k. 368
tec@@ 368
me. 366
er. 366
ile 365
30 363
dollar@@ 361
1 361
aver@@ 359
sog@@ 358
individu@@ 358
ou@@ 357
ute 355
7 355
[@@ 354
100 352
00@@ 352
sing@@ 351
Inter@@ 350
mill@@ 348
sh@@ 347
gro@@ 346
stud@@ 345
tur@@ 344
off@@ 342
D 342
rem@@ 341
gin@@ 341
sare@@ 339
bot@@ 339
af@@ 329
us 327
d, 327
biamo 325
Ne@@ 325
mic@@ 319
uni@@ 316
“@@ 314
design@@ 312
O 312
es 308
th@@ 306
mis@@ 305
ice 304
ge 304
y. 304
Americ@@ 303
s. 302
!@@ 301
j@@ 300
tim@@ 298
est 296
realt@@ 291
design 289
d. 289
fun@@ 287
anto 285
p 285
respon@@ 283
] 283
Unit@@ 282
ard 282
ancor@@ 281
la@@ 280
as 277
ing 272
Z@@ 269
we@@ 267
ros@@ 264
se. 264
9 263
stor@@ 262
be 261
b 258
into 258
ele@@ 254
bor@@ 252
en 252
razi@@ 250
ture 249
lar@@ 246
Ma@@ 245
pul@@ 242
mac@@ 242
ase 239
OK@@ 235
– 235
one. 231
lev@@ 231
ogra@@ 230
oo@@ 228
ow@@ 226
tic@@ 225
pub@@ 225
ave 221
az@@ 219
one, 217
ar 217
star@@ 215
stre@@ 215
ak@@ 215
sup@@ 213
der 212
Amer@@ 210
Go@@ 210
ose 210
?@@ 209
an, 208
perc@@ 208
sm@@ 204
x 200
over@@ 200
produc@@ 197
X@@ 195
am 194
spen@@ 193
natu@@ 191
esem@@ 191
ki@@ 191
partic@@ 189
ame 188
son 186
econ@@ 185
” 184
”@@ 183
%@@ 183
duc@@ 181
ste@@ 179
on, 176
tw@@ 175
indi, 175
man 173
ative 172
fa@@ 171
he@@ 169
sum@@ 169
ue 167
possi@@ 165
sub@@ 165
lat@@ 164
bra@@ 163
ze 163
bac@@ 162
ex@@ 162
S 156
up@@ 154
and 153
busin@@ 152
ess 152
f 151
bero 150
nam@@ 149
V 148
c 148
Th@@ 146
contin@@ 142
et 142
our@@ 141
♫@@ 139
muc@@ 138
contro@@ 138
C 138
more 133
ph@@ 129
," 123
time 123
ear@@ 121
ey 120
e-@@ 119
es, 119
tre@@ 119
t. 118
in, 118
at 118
ill 117
ing, 117
ep@@ 117
/@@ 117
plan@@ 113
t, 112
comm@@ 108
har@@ 104
enc@@ 101
ry 100
es. 100
it 98
z 97
sel@@ 97
of 97
on. 96
ach@@ 95
our 94
wa@@ 92
ong 92
wi@@ 91
X 90
her@@ 90
oun@@ 90
So 89
’ 88
kin@@ 88
mark@@ 88
wit@@ 88
:@@ 88
q@@ 88
T 87
ational 86
inform@@ 86
Af@@ 85
ing. 85
th 84
eve 84
gram@@ 83
all 82
get 81
lob@@ 81
cco 81
ey@@ 80
ir 79
ers 79
ke 79
ure 79
L 79
use 78
We@@ 77
pre 77
ity 77
The 77
en, 76
les 76
w, 75
's 74
incre@@ 74
shi@@ 73
]@@ 72
of@@ 72
nolo@@ 72
ea@@ 70
war@@ 68
fir@@ 68
altr@@ 68
ood 68
ever@@ 67
ll 67
Q@@ 67
ter 66
ation 66
Wh@@ 66
in. 66
wor@@ 65
ick@@ 64
ke@@ 63
arch@@ 63
° 61
righ@@ 61
It@@ 60
ent 60
age 59
fri@@ 59
the 59
work 59
cause 58
dre@@ 57
,000 57
v 57
ú 56
ch 55
ld 55
ance 55
pla@@ 54
P 52
plac@@ 52
B 49
ain@@ 49
G 49
&@@ 48
ans@@ 48
et. 47
ft 47
and, 46
st 46
wat@@ 44
ver 44
bus@@ 43
ion 42
od 42
by 42
«@@ 42
ther@@ 41
ank 41
sai@@ 41
w 41
end 41
N 41
ence 41
put 41
K 40
eng@@ 40
hu@@ 40
al. 40
it, 40
;@@ 39
… 39
fro@@ 39
al, 39
— 39
R 38
ast 38
igh@@ 37
the@@ 37
ell 37
q 37
up 37
low 36
$ 36
É 35
$@@ 34
á 34
low@@ 33
gh 33
sy@@ 32
it. 32
ary 31
bet@@ 31
out@@ 31
right 30
any@@ 30
wn@@ 30
svi@@ 30
 @@ 29
ds 29
M 29
ks 29
U 29
ic 29
ther 29
show 29
is. 28
lear@@ 28
lif@@ 27
opl@@ 27
tog@@ 26
king 26
for 26
even 26
» 26
is, 25
ation, 25
rou@@ 25
ly 24
hom@@ 23
Y 23
wn 23
ild@@ 22
ó 22
bit 22
my 21
´@@ 21
H 21
ght 21
chang@@ 21
than 21
tech@@ 20
ble 20
also 20
trans@@ 19
ral 19
í 19
ful@@ 19
air@@ 19
ts 18
) 18
them@@ 18
talk 18
ation@@ 18
ant 17
jo@@ 17
ich 17
int 17
th. 17
ber 17
tion@@ 16
ed, 16
W 16
tion 16
sion 16
»@@ 16
ok 16
back 15
ical 15
ment 15
jec@@ 14
red 14
wh@@ 14
ation. 14
coun@@ 14
insi@@ 14
ous@@ 13
ed. 13
Z 13
ust 13
ves 13
*@@ 13
ut 13
á@@ 13
°@@ 12
over 12
ell, 12
any 12
ach 12
her 12
old 11
F 11
loo@@ 11
show@@ 11
ö@@ 11
vidu@@ 10
way 10
day 10
e's 10
clo@@ 10
w. 10
ye@@ 10
Q 10
tle 10
lot 9
J 9
ligh@@ 9
ep 9
ally 9
+@@ 9
stem@@ 9
í@@ 9
blem@@ 9
ound 8
ow 8
ou 8
(@@ 8
commun@@ 8
now 8
life 8
time. 8
we 8
#@@ 8
nex@@ 7
way, 7
ful 7
=@@ 7
gy 7
under@@ 7
time, 7
hav@@ 7
very 7
ly, 7
What 7
imag@@ 7
+ 7
hap@@ 6
Now 6
ning 6
read@@ 6
/ 6
ys 6
she 6
´ 6
ó@@ 5
able 5
try 5
out 5
j 5
give 5
ever 5
can 5
grand@@ 5
…@@ 5
ked 5
  4
ys, 4
see 4
‘@@ 4
you@@ 4
We 4
It's 4
* 4
its 4
indi 4
hel@@ 4
made 4
ould 4
down 4
ü@@ 4
pow@@ 4
own 4
als 4
call 3
look 3
ting 3
ations 3
was@@ 3
They 3
“ 3
worl@@ 3
ven 3
some 3
²@@ 3
mov@@ 3
ated 3
ç@@ 3
cour@@ 3
projec@@ 3
` 3
technolo@@ 3
big 3
call@@ 3
ú@@ 3
È@@ 3
how 3
ying 3
ä@@ 3
This 3
lik@@ 3
etter 3
want 3
your 3
can't 3
bod@@ 3
½ 2
¼ 2
off 2
reas@@ 2
not 2
got 2
€ 2
know@@ 2
will 2
= 2
world 2
û 2
And 2
@@@ 2
that 2
why 2
thou@@ 2
beli@@ 2
had 2
I'@@ 2
ous 2
actu@@ 2
Now, 2
kes 2
–@@ 2
if 2
@ 2
num@@ 2
gn 2
² 2
ñ@@ 2
build@@ 2
ā@@ 2
♪ 2
've 1
part 1
system@@ 1
How 1
`@@ 1
human 1
)@@ 1
™ 1
thing 1
thing@@ 1
İ@@ 1
long 1
ere's 1
his 1
nostr@@ 1
® 1
don't 1
have 1
good 1
body 1
ž@@ 1
ѐ 1
change 1
You 1
¼@@ 1
¥ 1
ely 1
sort 1
struc@@ 1
which 1
â@@ 1
ê@@ 1
real 1
this 1
was 1
© 1
just 1
throu@@ 1
self@@ 1
when 1
ś@@ 1
ć 1
buil@@ 1
ã@@ 1
other@@ 1
[ 1
˚ 1
£@@ 1
^@@ 1
É@@ 1
Ç@@ 1
ï@@ 1
know, 1
‘ 1
It 1
♪@@ 1
new 1
