di 54665
che 45916
e 41381
a 38144
la 26981
un 26088
è 25369
i 24630
il 24116
in 23559
per 18790
una 17098
non 15417
o 15284
are 14324
le 13667
E 13484
si 13481
o, 12089
o. 11920
a. 11501
s@@ 10949
a, 10674
sono 10653
ato 10617
l'@@ 10083
da 10065
del 9196
in@@ 9112
i@@ 8993
come 8865
ri@@ 8758
con 8738
e. 8598
e, 8383
t@@ 8091
questo 7975
di@@ 7972
più 7940
. 7590
se 7539
ano 7535
della 7308
i, 7289
ci 7285
ma 7189
"@@ 6851
e@@ 6824
ar@@ 6791
er@@ 6747
, 6635
to 6604
S@@ 6465
i. 6286
ha 6020
a@@ 6005
mi 5855
st@@ 5828
al 5828
v@@ 5718
ale 5676
nel 5673
o@@ 5670
d@@ 5639
f@@ 5504
lo 5466
gli 5373
g@@ 5088
es@@ 5061
-- 5025
av@@ 4971
am@@ 4953
or@@ 4926
b@@ 4847
l@@ 4831
era 4822
m@@ 4812
pi@@ 4801
re@@ 4799
c@@ 4787
Ma 4749
u@@ 4726
ate 4721
questa 4686
cosa 4661
an@@ 4635
molto 4630
co@@ 4538
ho 4499
con@@ 4494
dei 4478
it@@ 4469
r@@ 4459
p@@ 4420
al@@ 4417
ci@@ 4408
ere 4350
delle 4347
ti 4299
n@@ 4208
ando 4204
abbiamo 4106
on@@ 4051
alla 4037
D@@ 4026
Non 4014
cui 4007
ic@@ 3971
essere 3944
C@@ 3903
pro@@ 3890
azione 3862
si@@ 3841
: 3834
per@@ 3808
at@@ 3803
so 3776
vi 3768
vi@@ 3765
de@@ 3751
ata 3737
anche 3731
amente 3725
? 3690
ver@@ 3683
re 3679
ati 3634
M@@ 3621
et@@ 3610
en@@ 3597
quando 3575
pre@@ 3540
ono 3538
ol@@ 3515
zione 3495
La 3470
loro 3459
perché 3457
par@@ 3442
vol@@ 3417
ità 3401
ad 3398
dell'@@ 3396
chi@@ 3372
ica 3349
hanno 3290
fare 3279
solo 3215
col@@ 3183
ore 3172
uno 3148
su 3131
persone 3119
Il 3095
io 3062
mi@@ 3040
tutto 3031
ne 3012
A@@ 3011
quello 3004
fi@@ 3003
im@@ 2996
ai 2985
T@@ 2984
sol@@ 2956
bi@@ 2952
così 2928
ro@@ 2918
N@@ 2912
ti@@ 2906
att@@ 2898
as@@ 2890
cre@@ 2879
un@@ 2856
gi@@ 2843
'@@ 2835
tutti 2824
B@@ 2824
est@@ 2823
us@@ 2821
nella 2772
zz@@ 2770
ò 2743
po@@ 2740
te 2736
em@@ 2733
ra@@ 2731
pot@@ 2716
sia 2716
modo 2688
ed 2683
ent@@ 2672
mo@@ 2629
ett@@ 2614
anni 2610
li@@ 2593
de 2587
un'@@ 2582
♫ 2560
ciò 2550
Questo 2543
ente 2537
se@@ 2507
queste 2504
and@@ 2490
enti 2487
E@@ 2474
os@@ 2470
cose 2469
questi 2469
fatto 2462
ap@@ 2455
P@@ 2454
va 2434
ac@@ 2434
O@@ 2420
E' 2416
ico 2401
amo 2394
qu@@ 2394
all'@@ 2387
ter@@ 2384
do 2377
dic@@ 2361
L@@ 2356
el@@ 2353
dis@@ 2334
R@@ 2332
far@@ 2330
z@@ 2322
endo 2318
stato 2300
ali 2287
mio 2286
enza 2286
com@@ 2283
ag@@ 2281
man@@ 2273
all@@ 2251
sta 2250
ogni 2249
siamo 2247
su@@ 2228
inter@@ 2214
ot@@ 2199
- 2197
oc@@ 2190
cor@@ 2182
ta 2182
li 2178
for@@ 2174
parte 2171
V@@ 2169
ut@@ 2164
anno 2164
ch@@ 2158
mia 2147
F@@ 2146
no@@ 2137
sc@@ 2135
due 2128
mo 2124
sione 2111
ven@@ 2105
chi 2095
min@@ 2090
ale. 2084
ist@@ 2034
car@@ 2025
ad@@ 2016
c'è 2008
Quindi 2006
mondo 1996
prima 1988
ur@@ 1973
dove 1963
anti 1961
é 1943
può 1929
do@@ 1923
-@@ 1919
sp@@ 1903
dal 1900
ess@@ 1898
ori@@ 1869
poi 1866
... 1863
cer@@ 1861
ori 1843
qualcosa 1840
ant@@ 1829
ari@@ 1827
sul 1821
tu@@ 1815
G@@ 1806
ete 1785
me 1783
pe@@ 1775
cos@@ 1773
ino 1770
In 1751
almente 1739
ale, 1738
tra 1734
Se 1729
noi 1727
str@@ 1722
pens@@ 1707
is@@ 1691
are. 1688
fer@@ 1688
zioni 1685
1@@ 1683
om@@ 1666
ec@@ 1663
sulla 1662
". 1653
ante 1651
degli 1650
ric@@ 1649
qui 1646
ati@@ 1641
fin@@ 1640
' 1630
br@@ 1630
te@@ 1629
der@@ 1615
quel 1615
gen@@ 1610
o? 1604
mai 1601
tr@@ 1598
Questa 1596
vedere 1590
ora 1587
quella 1586
ato. 1583
L'@@ 1580
ll@@ 1558
davvero 1555
h@@ 1554
ing@@ 1553
ca@@ 1552
bu@@ 1545
" 1538
dov@@ 1534
gu@@ 1529
ero 1517
sto 1513
ment@@ 1509
H@@ 1503
ass@@ 1500
meno 1494
no 1480
uto 1480
por@@ 1475
alt@@ 1474
cont@@ 1468
ancora 1458
alle 1447
dalla 1442
ato, 1442
k@@ 1432
fic@@ 1432
possiamo 1426
gli@@ 1423
vita 1417
ina 1416
ma@@ 1414
È 1414
mor@@ 1413
altro 1411
Qu@@ 1394
à 1390
parl@@ 1382
ava 1380
quanto 1379
nostro 1378
lo@@ 1377
grande 1376
uman@@ 1368
azioni 1363
mon@@ 1355
fa 1354
ici 1347
are, 1347
ento 1342
mostr@@ 1339
tras@@ 1337
ini 1329
gente 1324
Sono 1322
eva 1322
can@@ 1320
ev@@ 1318
y@@ 1315
Ho 1311
ve@@ 1311
acc@@ 1310
sempre 1309
etto 1307
iamo 1306
d'@@ 1302
Per 1300
K@@ 1294
ni@@ 1293
erano 1293
le@@ 1291
Ed 1289
sa@@ 1287
ine 1278
zion@@ 1276
suo 1275
ris@@ 1273
ari 1266
Ci 1264
nostra 1264
aggi@@ 1253
2@@ 1250
ser@@ 1250
nell'@@ 1250
pass@@ 1250
ce 1249
dire 1248
port@@ 1246
e? 1244
tre 1242
In@@ 1235
ved@@ 1231
ra 1231
anz@@ 1230
co, 1226
ne@@ 1225
I@@ 1222
cu@@ 1222
tutte 1222
ra, 1219
sua 1219
rit@@ 1214
ra. 1214
ia 1213
met@@ 1211
op@@ 1208
sa 1205
co. 1202
tipo 1201
ve 1200
lavor@@ 1199
pres@@ 1198
avere 1196
I 1194
pri@@ 1194
diver@@ 1193
tempo 1193
e' 1191
." 1186
ast@@ 1181
fon@@ 1179
qualche 1178
inizi@@ 1176
mol@@ 1175
Si 1174
pen@@ 1173
int@@ 1162
amento 1159
circa 1157
diamo 1155
ab@@ 1154
to@@ 1153
proprio 1149
essi@@ 1147
ul@@ 1147
nei 1145
olo 1145
pa@@ 1143
senza 1142
ito 1136
sci@@ 1136
ell@@ 1136
chiam@@ 1136
dopo 1134
Abbiamo 1134
Perché 1131
ed@@ 1131
end@@ 1124
vo@@ 1120
dere 1120
voi 1119
funzion@@ 1118
che, 1117
vo 1116
quindi 1112
du@@ 1109
à, 1109
?" 1106
ire 1105
3@@ 1105
do. 1103
fu@@ 1096
aff@@ 1096
à. 1092
ir@@ 1087
sic@@ 1085
gener@@ 1083
aggio 1081
cambi@@ 1079
stata 1079
zi@@ 1076
post@@ 1075
gh@@ 1074
lo. 1071
volta 1068
possono 1068
A 1063
esse 1063
cent@@ 1061
! 1060
cit@@ 1060
evo 1058
ren@@ 1055
er 1055
punto 1054
avo 1053
Le 1050
altri 1050
o: 1047
ten@@ 1047
ali@@ 1046
po' 1041
avano 1039
mar@@ 1036
one 1035
acci@@ 1032
nelle 1031
e: 1026
cas@@ 1023
il@@ 1020
Come 1019
re, 1014
molti 1012
abi@@ 1009
ole 1001
tut@@ 999
import@@ 997
ro 997
fatt@@ 991
Ora, 990
W@@ 988
amente, 985
Quando 984
so@@ 984
ca 982
stru@@ 981
fac@@ 981
.@@ 979
ita 979
stesso 975
U@@ 974
tt@@ 969
Mi 965
cal@@ 963
iti 961
pag@@ 960
essi 960
J@@ 956
dall'@@ 952
deci@@ 951
to, 951
cam@@ 949
costru@@ 949
5@@ 948
uti 946
Un 944
on 942
altre 942
mat@@ 940
dire@@ 937
ru@@ 935
segu@@ 934
do, 933
anza 933
negli 931
uc@@ 931
bisogno 931
indi@@ 931
a? 929
bile 926
no, 926
prov@@ 926
be@@ 925
potete 923
sistema 921
nostri 918
reg@@ 918
bell@@ 917
storia 916
cost@@ 916
to. 916
ite 912
zza 912
Così 911
viene 911
4@@ 909
ament@@ 908
me@@ 906
re. 906
so, 900
pol@@ 899
eff@@ 897
are@@ 896
ion@@ 896
ai@@ 894
voglio 892
pren@@ 890
Ecco 890
test@@ 887
arriv@@ 885
ambi@@ 883
fuori 881
ente. 878
no. 878
zione. 875
divent@@ 874
na 874
Quindi, 874
ese 872
ro, 871
ano. 870
stiamo 869
pr@@ 865
vit@@ 865
pun@@ 864
trov@@ 861
stanno 861
rat@@ 861
person@@ 860
interess@@ 859
ov@@ 857
mus@@ 857
eri@@ 852
eg@@ 852
ani 852
comun@@ 851
andare 851
so. 848
lasci@@ 844
evol@@ 842
cono 841
mentre 840
differ@@ 839
ola 838
aveva 837
posto 837
visto 837
aut@@ 836
continu@@ 835
fosse 835
7@@ 835
sarebbe 834
fino 830
val@@ 830
econom@@ 829
sal@@ 827
ante. 825
quale 825
fu 825
verso 821
gra@@ 821
mento 820
pl@@ 820
pi 819
alcuni 811
milioni 811
lavoro 810
ti, 809
ario 807
cominci@@ 807
sen@@ 801
immagin@@ 800
Una 796
penso 796
8@@ 795
sper@@ 795
cat@@ 794
son@@ 794
tra@@ 794
d 793
gg@@ 792
azion@@ 792
sor@@ 791
azione. 791
fine 789
avete 788
ano, 785
problema 783
tem@@ 783
stra@@ 782
uti@@ 781
pes@@ 779
legg@@ 778
quelle 773
ali. 772
sioni 770
sei 770
mer@@ 770
idea 769
impar@@ 768
dent@@ 767
creare 763
migli@@ 760
itu@@ 760
alizz@@ 759
insegn@@ 757
primo 756
ica. 755
gior@@ 755
già 752
nu@@ 751
og@@ 751
anni. 750
mente 750
pos@@ 749
credo 749
capi@@ 749
ità. 749
atto 747
dav@@ 740
det@@ 740
pas@@ 738
mondo. 738
specie 738
conosc@@ 737
li. 736
ì, 735
An@@ 735
evano 735
esi 734
tanto 731
molte 731
aiut@@ 731
bas@@ 730
guar@@ 728
ragazz@@ 728
eri 727
6@@ 727
anni, 726
ali, 725
; 724
ber@@ 722
zione, 721
detto 720
ica, 719
realtà 718
si, 717
9@@ 716
si. 716
emo 715
capire 715
volte 715
Lo 714
an 714
miei 713
rebbero 713
a: 712
chio 710
bambini 710
le. 705
qualcuno 705
arti@@ 704
studi@@ 704
forse 703
ene 701
parlare 700
Al@@ 699
le, 698
sero 697
ang@@ 697
enzi@@ 696
ani@@ 696
bar@@ 695
sco@@ 694
azione, 692
St@@ 692
Ora 691
ta@@ 690
cell@@ 690
tutta 689
rac@@ 689
prendere 688
sarà 688
y 688
cresc@@ 687
acca@@ 687
soci@@ 687
stessa 685
giorno 684
ti. 684
arsi 682
dobbiamo 681
potrebbe 679
sap@@ 678
part@@ 678
dice 677
propri@@ 677
speci@@ 677
rete 676
po, 675
fil@@ 675
pensare 674
esist@@ 674
attraverso 672
form@@ 672
ide@@ 672
mag@@ 671
momento 671
avuto 670
Ch@@ 668
allo 668
lui 668
iment@@ 667
colo 667
ura 666
nuovo 665
quest@@ 665
dai 664
ff@@ 662
veramente 661
ore, 661
amo, 659
acqu@@ 659
Per@@ 659
stati 657
som@@ 657
altra 655
ssi@@ 655
lu@@ 654
Io 654
entr@@ 653
ma, 653
All@@ 652
ata. 651
tro@@ 649
ore. 649
dit@@ 649
", 648
guard@@ 648
forma 646
anti@@ 645
doman@@ 645
agli@@ 644
pic@@ 644
informa@@ 642
facci@@ 642
spi@@ 641
senti@@ 640
leg@@ 639
n 639
remmo 639
ini@@ 639
w@@ 638
fre@@ 638
piac@@ 637
importante 637
Che 635
giust@@ 635
certo 634
sist@@ 634
au@@ 634
da@@ 633
ro. 633
Di@@ 632
ce@@ 632
ati. 631
.000 631
abbastanza 630
ici@@ 629
% 629
tor@@ 629
erò 628
rel@@ 628
dati 628
te. 625
ativ@@ 625
quali 625
grandi 625
etro 625
vent@@ 624
fel@@ 623
siano 623
ggi@@ 622
ente, 621
10 620
fanno 619
alcune 618
ità, 616
19@@ 615
tecnologia 614
gran@@ 613
C'è 613
materi@@ 611
sot@@ 611
Beh, 611
atti@@ 609
via 609
sce 608
h, 608
enz@@ 607
agli 607
natur@@ 606
gio@@ 606
gia 605
azz@@ 605
Av@@ 605
uzione 605
ram@@ 604
ante, 602
lav@@ 602
ora, 600
enze 600
Voglio 598
atori 597
problem@@ 597
dev@@ 596
sim@@ 596
controll@@ 595
grado 595
sch@@ 594
oggi 594
mett@@ 593
acqua 593
unque 592
tecnologi@@ 590
arvi 588
not@@ 588
nostre 588
gr@@ 587
avamo 582
quelli 582
ich@@ 582
ben@@ 582
viv@@ 582
oper@@ 581
id@@ 581
colo@@ 580
iti@@ 580
tivo 579
ate, 579
vic@@ 578
allora 576
zzo 576
5 574
te, 574
dato 574
enza. 572
ì 571
ei 571
disc@@ 570
fron@@ 570
dist@@ 569
avevo 568
maggior 567
cap@@ 566
rest@@ 565
inc@@ 565
far 562
amo. 562
facendo 562
semplic@@ 561
peri@@ 560
osserv@@ 560
lun@@ 559
go 559
arono 559
program@@ 559
erà 558
oggi@@ 558
tiamo 557
aspett@@ 557
li, 556
go@@ 556
co 555
dare 554
giorn@@ 553
quattro 553
de. 552
alc@@ 551
lor@@ 551
menti 551
pu@@ 550
qui, 550
ati, 550
don@@ 550
perchè 550
quasi 550
sion@@ 549
etti@@ 549
problemi 549
dalle 548
sistem@@ 545
tratt@@ 545
compl@@ 545
amp@@ 543
rei 543
riusci@@ 543
u 543
ness@@ 542
energia 542
cir@@ 542
posso 542
’@@ 541
c'@@ 541
amb@@ 541
fat@@ 540
coll@@ 540
dire, 540
realizz@@ 538
bb@@ 538
senso 538
esso 538
termin@@ 537
ette 537
numero 536
san@@ 536
sape@@ 536
sotto 535
persona 535
usare 534
ù 534
famigli@@ 533
prodot@@ 533
ga 533
torn@@ 532
fr@@ 532
Nel 532
ig@@ 530
enza, 529
sem@@ 529
chied@@ 528
t 528
pan@@ 527
50 527
popol@@ 527
dir@@ 526
trovare 526
Gi@@ 526
present@@ 525
messo 525
particol@@ 524
risult@@ 524
mettere 523
abb@@ 522
ecco 522
s 522
ere, 522
edi@@ 522
succ@@ 521
tri@@ 521
piccolo 520
settiman@@ 520
se, 520
univer@@ 520
insieme 519
tele@@ 519
fos@@ 518
progett@@ 517
vostro 517
ran@@ 517
mu@@ 517
aria 516
Un@@ 516
mal@@ 516
secondo 516
ma. 514
riguar@@ 514
prossi@@ 514
deve 513
emente 512
è, 512
men@@ 512
oi 512
gn@@ 511
organizz@@ 511
esempio 510
po. 510
etti 509
remo 509
Cosa 508
Com@@ 508
prend@@ 508
cin@@ 507
sull'@@ 506
scal@@ 506
elle 505
piuttosto 505
vu@@ 505
mondo, 503
k, 501
cur@@ 501
stori@@ 499
fl@@ 499
Poi 499
stu@@ 499
Gu@@ 498
vero 498
state 498
gioc@@ 498
ello 497
gono 497
ata, 497
bili 496
rà 496
semplicemente 496
Con@@ 493
svilupp@@ 492
invece 492
20 492
ate. 491
vist@@ 491
vengono 491
consider@@ 491
Gli 491
dut@@ 491
gre@@ 490
questo, 490
progetto 489
macch@@ 488
Era 488
ella 487
viamo 487
scu@@ 486
di. 485
dar@@ 485
uom@@ 485
casa 484
anim@@ 484
signific@@ 483
ere@@ 483
possibile 483
h 483
di, 483
contro 483
ator@@ 483
lungo 482
metter@@ 482
ina. 482
gruppo 480
meglio 480
tal@@ 480
facciamo 479
sembr@@ 478
vogli@@ 478
po 478
possibi@@ 477
sulle 477
è@@ 476
de, 476
dollari 476
tura 476
questo. 475
domanda 475
costruire 475
raggiun@@ 474
atore 474
scel@@ 473
lì 473
lei 472
ere. 471
ost@@ 471
sui 471
oni 471
ogget@@ 471
nas@@ 471
glob@@ 470
inf@@ 470
reste 470
Pro@@ 469
asp@@ 469
tratta 468
Su@@ 468
0@@ 467
scor@@ 467
appena 466
spieg@@ 466
qui. 466
giu@@ 465
l 465
nello 464
pon@@ 464
Vi 463
dur@@ 463
serv@@ 463
lit@@ 463
vedete 463
amente. 463
"S@@ 462
Pen@@ 462
sembra 462
suoi 461
raccont@@ 460
avevano 460
caso 460
defin@@ 459
oria 458
ener@@ 458
ione 458
vostra 458
spazio 458
Mar@@ 458
me, 457
bre@@ 457
strut@@ 457
ovvi@@ 457
sost@@ 457
2 456
risol@@ 456
amenti 456
sapete, 456
lin@@ 456
medi@@ 455
troppo 455
necess@@ 455
abbia 454
pubbl@@ 454
Quello 454
comp@@ 454
quei 453
tiv@@ 453
polit@@ 452
vita. 452
3 452
durante 452
4 451
anti. 451
qual@@ 450
proc@@ 450
occup@@ 449
elli 449
fa, 449
foto 449
esper@@ 449
ina, 449
inci@@ 449
ché 448
chiar@@ 448
ner@@ 447
bile. 447
pover@@ 447
arci 447
citt@@ 447
probabilmente 446
cul@@ 446
comport@@ 446
ban@@ 445
mezzo 445
uso 445
ri 445
liber@@ 445
bri@@ 444
quant@@ 444
computer 444
oro 442
siete 442
dello 442
possa 442
vec@@ 442
uomo 441
Stati 441
cambiare 441
ori. 441
Grazie 440
ogli@@ 439
età 439
significa 438
simi@@ 438
città 438
Questi 437
rappresent@@ 437
gere 436
vin@@ 436
agi@@ 436
bene 436
ici. 435
idee 435
mano 434
ultimi 434
vediamo 434
aver 434
Sap@@ 433
anc@@ 433
endere 433
positi@@ 432
fotogra@@ 432
enti@@ 431
qualcos@@ 431
ici, 430
esempio, 430
ori, 430
ede 430
zio 430
m 430
un'altra 429
atu@@ 429
segn@@ 429
succed@@ 428
durre 428
livello 428
ron@@ 428
cervello 428
hai 427
veloc@@ 426
americ@@ 425
oltre 425
rag@@ 425
più@@ 424
lingu@@ 424
elettr@@ 423
compr@@ 423
miliardi 423
dat@@ 423
completamente 422
cli@@ 421
giov@@ 421
piccola 420
svilu@@ 420
sti@@ 419
super@@ 419
chiamato 418
cose. 418
cinque 418
osc@@ 418
rispon@@ 418
oce@@ 418
mem@@ 418
arri@@ 417
corso 417
qualsiasi 417
nuov@@ 416
um@@ 416
cc@@ 415
,@@ 414
Grazie. 414
cio@@ 413
pianet@@ 413
'è 413
puoi 413
Ha 413
des@@ 412
sit@@ 412
niente 412
line@@ 412
imp@@ 411
capit@@ 411
bli@@ 411
da. 410
sar@@ 410
bilit@@ 410
da, 410
successo 409
ann@@ 409
get@@ 409
200@@ 409
intellig@@ 409
ucci@@ 409
nessuno 409
malatti@@ 409
sin@@ 408
visi@@ 408
fe@@ 406
vista 406
6 405
Penso 405
ob@@ 405
difficile 404
ement@@ 404
scriv@@ 404
effetti 403
uro 403
ill@@ 403
mad@@ 402
pubblic@@ 401
servi@@ 401
sent@@ 401
unque, 401
mas@@ 400
iniziato 399
ragion@@ 399
diff@@ 399
sappiamo 399
20@@ 399
poter 398
à@@ 398
quest'@@ 398
Qui 398
colleg@@ 397
paio 397
evamo 397
farlo 397
devo 396
anno. 396
industri@@ 396
chiamo 396
pazi@@ 396
bambin@@ 395
abbi@@ 395
piace 394
r 394
ete, 393
din@@ 393
giro 393
enti. 393
oso 393
For@@ 392
iv@@ 392
portare 392
situ@@ 392
imento 392
innov@@ 391
otti@@ 391
mili@@ 391
New 391
atter@@ 390
almente, 390
00 390
incredi@@ 390
hi@@ 389
er, 389
cercando 389
pure 389
Siamo 388
dete 388
plic@@ 388
picco@@ 388
l'inter@@ 388
preso 387
ta, 387
bl@@ 387
spesso 387
Mol@@ 386
bisog@@ 385
gover@@ 385
col 385
atura 384
tan@@ 384
net@@ 384
cl@@ 384
perch@@ 383
ò, 383
ta. 383
immag@@ 383
sop@@ 383
mangi@@ 383
ni 383
immagine 383
accor@@ 382
aper@@ 382
cia 382
Bene, 382
nuova 382
vir@@ 382
0, 381
vis@@ 381
comput@@ 381
blo@@ 381
ge@@ 381
diversi 380
dono 380
g 379
meravigli@@ 379
ito. 378
conosci@@ 378
c'era 377
ando@@ 377
dott@@ 377
vorrei 377
fantast@@ 377
k 377
attiv@@ 376
tare 376
sapere 376
sur@@ 376
luce 376
Pot@@ 375
ricerca 375
prof@@ 374
emo@@ 374
conto 374
schi@@ 373
mette 373
pal@@ 373
y, 373
grazie 372
Par@@ 372
el 372
bo@@ 372
ghi@@ 372
cri@@ 371
archit@@ 371
tar@@ 371
bbero 371
pp@@ 371
0 370
ries@@ 370
...@@ 369
stava 369
vari@@ 369
tec@@ 368
tu 368
dentro 368
tav@@ 367
ana 367
fis@@ 367
me. 366
obi@@ 366
arlo 366
lla 366
er. 366
ulti@@ 366
lavorare 365
ile 365
sosten@@ 365
Pu@@ 365
movi@@ 365
Africa 364
ettiv@@ 364
adesso 364
sione. 364
inten@@ 364
letter@@ 363
Potete 363
30 363
se: 362
utilizz@@ 362
Queste 362
cio 362
incontr@@ 362
pad@@ 362
oni@@ 361
s, 361
edific@@ 361
dollar@@ 361
ricon@@ 361
lon@@ 360
base 360
x@@ 360
grup@@ 360
Ve@@ 360
nem@@ 360
ì. 360
aver@@ 359
quell'@@ 359
Perch@@ 359
scopri@@ 358
sog@@ 358
etta 358
individu@@ 358
Di 357
nazion@@ 357
interessante 357
modello 356
l'idea 355
ute 355
lmente 355
7 355
issi@@ 355
capacità 354
[@@ 354
tuo 354
ero@@ 353
carb@@ 353
impe@@ 353
abilità 353
spon@@ 352
100 352
produ@@ 351
dizion@@ 351
libro 351
avrebbe 351
ricor@@ 351
altri@@ 350
ito, 350
lo, 350
uta 350
sfi@@ 350
risposta 350
fond@@ 350
mie 350
batter@@ 350
ammo 349
zzi 349
semplice 349
porta 349
ricord@@ 349
diverse 349
mill@@ 348
é@@ 348
erebbe 348
sett@@ 347
poco 347
org@@ 347
anti, 346
sbagli@@ 345
k. 345
stud@@ 345
fatti 345
assi@@ 345
fondament@@ 345
succede 345
stra 345
seconda 344
armi 344
petroli@@ 344
tur@@ 344
sing@@ 344
chiama 344
anno, 343
sentito 343
cerc@@ 342
conc@@ 342
off@@ 342
ba 342
rem@@ 341
mani@@ 341
tempo. 341
nuove 340
posti 340
condivi@@ 340
é, 340
oli 340
superfici@@ 340
comunic@@ 340
sare@@ 339
zi 339
detto, 339
cammin@@ 339
parti@@ 338
zo 338
Ar@@ 338
struttura 338
esperienza 338
anzi@@ 338
ando, 337
nome 337
diventare 336
Ciò 336
creato 336
Possiamo 336
bene. 335
riv@@ 335
ate@@ 335
ricer@@ 335
spazi@@ 335
pensato 334
scoperto 334
ando. 334
mapp@@ 334
invest@@ 333
comunità 333
princip@@ 333
dot@@ 333
così. 333
atica 333
pensi@@ 332
dovuto 332
bene, 332
macchina 332
aggiun@@ 331
società 331
agn@@ 331
sione, 330
migliore 330
forza 330
tà 330
vicin@@ 330
ragazzi 330
enti, 330
persone, 330
af@@ 329
possibilità 329
futuro 329
altro. 329
posi@@ 328
affron@@ 328
centro 328
invent@@ 328
noi. 327
us 327
sacco 327
ace 327
donne 327
d, 327
tempo, 326
Co@@ 325
esattamente 325
Ne@@ 325
interno 325
essa 324
causa 324
forma@@ 324
etti, 323
pien@@ 323
Dov@@ 323
miglior@@ 322
avev@@ 322
pio 322
cen@@ 321
mass@@ 321
influ@@ 321
itori 321
muov@@ 321
sh@@ 321
ologi@@ 321
bbe 321
stess@@ 321
a' 320
corr@@ 320
scen@@ 320
modell@@ 320
paesi 320
desider@@ 320
bbi@@ 320
appar@@ 320
faccio 320
ricev@@ 319
opportun@@ 319
izi@@ 319
atten@@ 319
che. 319
', 318
ò@@ 318
uro@@ 318
inizio 318
metri@@ 317
ismo 317
saranno 317
Ogn@@ 316
rivol@@ 316
guardare 316
uni@@ 316
spe@@ 316
dimen@@ 316
proget@@ 315
den@@ 315
posizione 315
elo 315
maggi@@ 315
tipi 315
“@@ 314
intorno 314
rius@@ 314
vogliamo 314
figli@@ 314
tua 314
processo 314
Tutti 314
fa. 314
ca, 313
perf@@ 313
ico. 313
vita, 313
vor@@ 313
soff@@ 313
azien@@ 312
secon@@ 312
vivere 312
design@@ 312
O 312
conten@@ 312
tot@@ 311
o." 311
vere 310
trovato 310
rebbe 310
Cer@@ 310
vi. 309
dovrebbe 309
Indi@@ 309
serie 309
cominciato 309
TED@@ 308
portato 308
pratic@@ 308
coli 308
otten@@ 308
eci 307
terra 307
iche 307
pie@@ 307
osa 307
vuole 307
scienzi@@ 306
cibo 306
ca. 306
chie@@ 306
evi 305
sola 305
mis@@ 305
cercare 304
ice 304
ge 304
animali 304
prote@@ 304
migliaia 303
mess@@ 303
Pri@@ 302
arrivare 302
Ri@@ 302
ci. 302
rap@@ 302
success@@ 302
quad@@ 302
conn@@ 302
fav@@ 301
o... 301
non@@ 301
pia 300
straordin@@ 300
mare 300
scar@@ 299
giorni 299
l’@@ 299
nuovi 299
numer@@ 299
assolut@@ 299
buona 299
que 299
forni@@ 299
dirit@@ 299
là 299
strada 299
scrit@@ 298
gran 298
matem@@ 298
tim@@ 298
disegn@@ 298
persone. 298
cambiamento 298
gest@@ 297
riman@@ 297
Da 297
prefer@@ 297
salv@@ 297
rapi@@ 297
aument@@ 297
Im@@ 296
noi, 295
soprav@@ 295
eggi@@ 295
metri 295
aggi 295
fare. 294
compag@@ 294
a." 294
mostra 294
vide@@ 294
erra 294
Mon@@ 293
tutto, 293
nor@@ 293
ign@@ 293
pron@@ 293
potere 293
pianeta 293
fam@@ 293
asse 292
razione 292
moment@@ 292
ottenere 292
alto 292
igli@@ 292
E, 292
deva 291
ord@@ 291
o-@@ 291
realt@@ 291
Uni@@ 291
cervell@@ 291
scritto 290
ingegn@@ 290
ona 290
Ter@@ 290
lanci@@ 290
fondo 290
atori@@ 290
questione 289
modi 289
design 289
gioco 289
ultimo 289
d. 289
Americ@@ 288
alità 288
ese. 288
Hanno 288
asc@@ 288
regi@@ 288
Anche 287
Dobbiamo 287
Ec@@ 287
cav@@ 287
prender@@ 287
fun@@ 287
Tutto 286
luog@@ 286
veni@@ 286
ascolt@@ 286
l'un@@ 286
usa 286
anto 285
ragione 285
Credo 285
risor@@ 285
sano 284
arg@@ 284
ard@@ 284
plor@@ 284
parti 284
natura 284
usci@@ 283
noti@@ 283
] 283
essero 283
corpo 283
illu@@ 282
consu@@ 282
Noi 282
15 282
piu' 282
luogo 282
Lu@@ 282
potuto 281
err@@ 281
or 281
ancor@@ 281
donna 281
e." 281
bambino 281
dol@@ 280
ece 280
avrei 280
la@@ 280
primi 280
piccoli 280
storie 280
y. 280
scuola 280
suon@@ 280
j@@ 279
mercato 279
gar@@ 279
denar@@ 279
Unit@@ 279
ret@@ 279
esser@@ 279
eli@@ 279
accio 279
vi, 278
metà 277
ger@@ 277
as 277
cellul@@ 277
l'ho 276
tas@@ 276
responsa@@ 276
incredibi@@ 276
ecc@@ 276
finanzi@@ 276
ard 276
ranno 276
film 276
diventa 275
glio 275
tent@@ 275
campo 275
ust@@ 275
serve 274
impi@@ 274
aia 274
000 274
ogn@@ 274
uff@@ 274
lett@@ 274
sue 274
luc@@ 274
confer@@ 273
futuro@@ 273
lavoro. 273
esim@@ 273
stim@@ 273
qualunque 273
ession@@ 273
dovremmo 272
chiesto 272
guerra 272
s. 271
media 271
este 271
Così, 271
periodo 270
cogli@@ 270
guardate 270
enorme 270
ese, 270
scienza 270
sorta 270
trova 270
invol@@ 269
Z@@ 269
rispetto 269
ico, 269
es 269
ì@@ 269
to: 269
zioni. 268
za 268
ane 268
anza. 268
guid@@ 268
fur@@ 268
dagli 268
sopra 268
Allora 268
qui@@ 268
vostri 267
inv@@ 267
Vi@@ 266
atic@@ 266
ific@@ 266
fal@@ 266
mo, 265
viol@@ 265
ppo 265
Pi@@ 265
ule 264
se. 264
ù@@ 263
9 263
norm@@ 263
8 262
bal@@ 262
gal@@ 262
merc@@ 261
hi 261
be 261
app@@ 261
stor@@ 260
pend@@ 260
matt@@ 260
prim@@ 259
th@@ 259
ove 259
ros@@ 259
dett@@ 258
b 258
into 258
compas@@ 258
scoper@@ 257
commerci@@ 255
pet@@ 255
ades@@ 255
ele@@ 254
gros@@ 254
sign@@ 252
bor@@ 252
fici@@ 252
emer@@ 252
No, 251
velo@@ 251
cro@@ 251
razi@@ 250
mini@@ 250
spar@@ 250
ture 249
alist@@ 249
ure@@ 249
video 249
dest@@ 249
gir@@ 247
ia, 247
contr@@ 247
ole, 247
gl@@ 247
nell@@ 245
facil@@ 245
preci@@ 245
Ma@@ 245
med@@ 245
Al 244
dia 244
esi@@ 244
tir@@ 243
40 243
rin@@ 243
vill@@ 242
pul@@ 242
mac@@ 242
enor@@ 242
plo@@ 241
pian@@ 240
ester@@ 240
libr@@ 240
micro@@ 239
radi@@ 239
ase 239
scienti@@ 239
forest@@ 238
zone 238
insiem@@ 238
sco 237
10@@ 237
princi@@ 237
prepar@@ 236
civi@@ 236
equi@@ 236
olo@@ 235
if@@ 235
– 235
ing 234
tran@@ 234
infin@@ 233
applic@@ 233
nucle@@ 233
poll@@ 232
divi@@ 232
"O@@ 232
one. 231
rec@@ 231
lev@@ 231
lan@@ 231
ogra@@ 230
evit@@ 230
Inter@@ 230
divers@@ 230
las@@ 230
canc@@ 229
gam@@ 229
pat@@ 228
Tut@@ 228
Bi@@ 227
ou@@ 227
asi 227
organis@@ 227
centr@@ 227
abit@@ 227
occu@@ 226
lim@@ 226
ow@@ 226
e" 226
seri@@ 226
impres@@ 225
ond@@ 225
bot@@ 225
en 225
tic@@ 224
pub@@ 224
Mo@@ 224
complet@@ 224
Pa@@ 224
sid@@ 223
che@@ 223
demo@@ 223
CA: 223
magn@@ 223
loc@@ 222
B: 222
ordin@@ 220
diffic@@ 220
Po@@ 220
del@@ 220
ave 219
conclu@@ 219
chiest@@ 219
improv@@ 218
az@@ 218
digit@@ 218
is 218
dell@@ 217
Le@@ 217
moder@@ 217
one, 217
conver@@ 216
Ben@@ 216
area 215
Car@@ 215
mp@@ 215
star@@ 215
stre@@ 215
ak@@ 215
labor@@ 214
Nor@@ 214
US@@ 213
orno 213
autom@@ 213
Ro@@ 213
sup@@ 213
dop@@ 212
India 212
attraver@@ 211
ar 211
p 211
bo 211
epi@@ 210
ose 210
der 210
?@@ 209
Ci@@ 209
lar@@ 209
terri@@ 209
contri@@ 208
an, 208
00@@ 208
TED 208
perc@@ 208
conf@@ 207
1 206
mist@@ 206
mam@@ 206
vers@@ 206
ton@@ 205
Dav@@ 205
mente, 205
60 205
robot 205
distribu@@ 205
!" 204
sm@@ 204
dimension@@ 204
caus@@ 203
sequ@@ 203
medic@@ 203
oo@@ 203
stat@@ 201
x 200
limit@@ 200
over@@ 200
effici@@ 199
nut@@ 199
America 199
liv@@ 198
compet@@ 198
colt@@ 198
tend@@ 197
Be@@ 197
gett@@ 197
separ@@ 196
artist@@ 196
evi@@ 195
ature 195
X@@ 195
grav@@ 194
batt@@ 194
am 194
olog@@ 194
stri@@ 194
Europ@@ 193
spen@@ 193
Pre@@ 193
concentr@@ 193
50@@ 192
genet@@ 192
aci@@ 192
natu@@ 191
esem@@ 191
esempi@@ 190
miliar@@ 190
origin@@ 190
esperi@@ 190
Y@@ 190
qualc@@ 189
partic@@ 189
ame 188
capac@@ 188
atur@@ 188
comb@@ 188
neg@@ 187
fort@@ 187
enomen@@ 187
Pos@@ 186
crit@@ 186
atmo@@ 186
No@@ 186
18@@ 186
fini@@ 186
Si@@ 185
200 185
son 185
biolog@@ 185
visit@@ 185
giun@@ 185
” 184
Goog@@ 184
roc@@ 184
”@@ 183
%@@ 183
sugg@@ 182
duc@@ 181
Bu@@ 181
colle@@ 181
mul@@ 181
199@@ 181
Fran@@ 181
atom@@ 181
scri@@ 180
squ@@ 180
0. 180
ine. 179
A, 179
intro@@ 179
500 179
En@@ 179
Secon@@ 178
ol 177
fo@@ 177
on, 176
cop@@ 176
emis@@ 176
posta 176
relig@@ 175
indi, 175
sull@@ 174
alter@@ 174
compar@@ 174
25 174
man 173
fortun@@ 173
recent@@ 173
ingu@@ 173
ative 172
radic@@ 172
do? 172
12 172
quell@@ 172
Yor@@ 172
softw@@ 171
priv@@ 171
progres@@ 171
fa@@ 171
govern@@ 171
collabor@@ 170
complic@@ 170
Cre@@ 170
determin@@ 170
ash@@ 169
sum@@ 169
combin@@ 168
clas@@ 168
Is@@ 168
A. 167
Joh@@ 167
entu@@ 167
conv@@ 167
ue 167
Africa, 166
log@@ 165
tell@@ 165
sub@@ 165
bamb@@ 165
quar@@ 165
lat@@ 164
Chris 163
piamo 163
ki@@ 163
bra@@ 163
ze 163
Sh@@ 162
temper@@ 162
HI@@ 162
possi@@ 162
gi 162
ascin@@ 162
e; 162
teri@@ 162
probabi@@ 160
docu@@ 159
York 158
discus@@ 157
S 156
he@@ 156
societ@@ 156
foll@@ 156
test 155
11 155
ine, 155
motiv@@ 155
integr@@ 155
inst@@ 154
ve, 154
curi@@ 154
perio@@ 153
process@@ 153
CO@@ 152
Ge@@ 152
Re@@ 151
bero 150
gin@@ 150
let@@ 149
nam@@ 149
18 149
"A@@ 149
Sa@@ 149
Don@@ 149
ex@@ 149
pe 148
lizz@@ 148
bom@@ 148
V 148
osci@@ 148
Wi@@ 147
prob@@ 146
suff@@ 146
sul@@ 145
immedi@@ 145
Th@@ 145
idea. 145
bac@@ 145
De@@ 144
100@@ 144
fant@@ 143
contin@@ 142
stati@@ 142
et 142
dd@@ 141
AID@@ 141
sil@@ 141
est 140
os 140
DNA 140
unqu@@ 139
pit@@ 139
simul@@ 139
♫@@ 139
m, 138
muc@@ 138
contro@@ 138
C 138
diag@@ 138
gri@@ 137
f 137
ve. 136
Man@@ 136
ba@@ 136
equ@@ 136
consi@@ 135
past@@ 135
but@@ 135
Ira@@ 135
univers@@ 134
urb@@ 134
D 134
Africa. 134
question@@ 133
more 133
we@@ 132
ili@@ 132
grazi@@ 130
percent@@ 130
ph@@ 129
and 129
up@@ 128
famili@@ 127
abilit@@ 127
gol@@ 127
Har@@ 127
an. 126
real@@ 126
od@@ 126
H: 125
educ@@ 124
m. 124
go. 123
zer@@ 123
bit@@ 123
," 123
Tim@@ 123
time 123
student@@ 122
Li@@ 122
descri@@ 122
abor@@ 122
tom@@ 122
rist@@ 122
nost@@ 121
dro@@ 121
stron@@ 121
ear@@ 121
bro@@ 121
Quest@@ 120
Internet 120
ey 120
e-@@ 119
c 119
es, 119
tre@@ 119
fortunat@@ 118
anal@@ 118
in, 118
at 118
ill 117
ing, 117
cru@@ 117
ep@@ 117
Au@@ 117
/@@ 117
sta@@ 116
data 115
virtu@@ 115
visu@@ 115
azi@@ 115
robot@@ 114
plan@@ 113
mom@@ 113
Wor@@ 113
Bo@@ 112
sto@@ 111
rice 111
sens@@ 111
produce 110
stand@@ 110
Se@@ 110
risp@@ 109
web@@ 109
ton 109
comm@@ 108
intell@@ 108
Cos@@ 108
id 107
clu@@ 106
dri@@ 106
har@@ 104
spo@@ 104
aw@@ 104
top@@ 103
t. 103
our@@ 102
spec@@ 101
S. 101
ry 100
OK, 100
es. 100
Jo@@ 99
list@@ 99
foc@@ 99
Vogli@@ 99
inclu@@ 98
it 98
!@@ 97
tecnolo@@ 97
z 97
of 97
DN@@ 96
t, 96
on. 96
cultu@@ 96
ach@@ 95
sb@@ 95
ay 94
put@@ 94
dise@@ 94
pena 94
business 93
Gre@@ 93
inste@@ 93
gro@@ 92
our 92
ong 92
wi@@ 91
care 91
acco 91
um 91
ifica 90
X 90
her@@ 90
So 89
cogn@@ 89
desi@@ 89
’ 88
kin@@ 88
mark@@ 88
wa@@ 88
ice. 88
wit@@ 88
:@@ 88
religi@@ 88
q@@ 88
T 87
produc@@ 87
elec@@ 87
oun@@ 87
us. 86
lead@@ 86
inform@@ 86
evid@@ 85
Af@@ 85
Oka@@ 85
nov@@ 85
ing. 85
bir@@ 85
enc@@ 85
OK. 84
possibilit@@ 84
eve 84
ner 83
net 83
gram@@ 83
ago 83
..@@ 83
tin@@ 82
ste@@ 82
case 82
line 82
all 82
get 81
appro@@ 81
lob@@ 81
cco 81
ey@@ 80
mic@@ 80
A: 80
ospit@@ 80
g, 80
pati@@ 80
ir 79
ers 79
ke 79
Afric@@ 79
L 79
h. 79
ey, 78
use 78
auti@@ 78
bur@@ 77
anci@@ 77
We@@ 77
abbast@@ 77
ational 77
pre 77
ity 77
dig@@ 76
en, 76
les 76
minut@@ 74
incre@@ 74
w, 73
]@@ 72
of@@ 72
us, 72
nolo@@ 72
ho@@ 71
ack@@ 71
's 70
ick 70
pur@@ 70
attr@@ 69
as, 69
trav@@ 68
fir@@ 68
altr@@ 68
important@@ 67
ever@@ 67
non-@@ 67
ure 67
rav@@ 67
as. 67
Q@@ 67
audi@@ 67
ter 66
ation 66
Wh@@ 66
spre@@ 66
in. 66
tive 65
cr@@ 65
doll@@ 65
sof@@ 65
Ex@@ 65
selv@@ 65
ick@@ 64
gres@@ 64
tuto 64
ice, 63
ke@@ 63
arch@@ 63
amer@@ 62
ei@@ 62
ll 62
° 61
el, 61
sli@@ 61
ga@@ 61
ack 61
ood 61
It@@ 60
war@@ 59
age 59
busin@@ 59
fri@@ 59
n, 59
the 59
work 59
dra@@ 58
g. 58
cause 58
clim@@ 58
dre@@ 57
,000 57
v 57
ú 56
ld 55
ea@@ 55
sud@@ 55
ance 55
ch 54
ular@@ 54
r. 54
en. 54
elet@@ 53
P 52
plac@@ 52
OK@@ 51
cerv@@ 51
You@@ 51
esatt@@ 50
recor@@ 49
chil@@ 49
B 49
ain@@ 49
G 49
&@@ 48
ans@@ 48
nuc@@ 48
he 48
et. 47
ft 47
sec@@ 47
ka@@ 47
ent 47
setti@@ 47
pose 47
and, 46
alcun@@ 46
"I 46
figu@@ 46
boo@@ 46
open@@ 45
The 45
sk@@ 44
ail@@ 44
land@@ 44
ver 44
ef@@ 43
reli@@ 43
inte@@ 43
wat@@ 43
bus@@ 43
p, 43
ion 42
od 42
Euro@@ 42
Grazi@@ 42
or, 42
by 42
«@@ 42
ess. 41
ank 41
sai@@ 41
end 41
N 41
shi@@ 41
put 41
tru@@ 40
set 40
K 40
eng@@ 40
hu@@ 40
al. 40
it, 40
sun@@ 40
;@@ 39
sult@@ 39
st 39
… 39
organi@@ 39
fro@@ 39
al, 39
ence 39
— 39
indu@@ 39
biamo 38
om 38
p. 38
R 38
ans 38
ast 38
et, 37
diffici@@ 37
und 37
larg@@ 37
igh@@ 37
the@@ 37
fut@@ 37
q 37
up 37
port 37
patter@@ 37
low 36
ess 36
cep@@ 36
w 36
$ 36
n. 36
th, 36
top 35
É 35
ess, 35
create 35
den 34
ago, 34
$@@ 34
pla@@ 34
á 34
pai@@ 33
low@@ 33
AI@@ 33
inde@@ 33
Ever@@ 33
ther@@ 32
usu@@ 32
it. 32
ship 32
"The 32
Earth 32
piu@@ 31
ary 31
win@@ 31
bet@@ 31
righ@@ 31
out@@ 31
right 30
futu@@ 30
sy@@ 30
outh 30
sel@@ 30
utto@@ 30
long@@ 30
svi@@ 30
 @@ 29
any@@ 29
omen@@ 29
M 29
be, 29
Pe@@ 29
U 29
ool@@ 29
ago. 29
ic 29
ther 29
attro 29
show 29
social 29
sure 28
ds 28
is. 28
lear@@ 28
gh 28
car 28
opl@@ 27
ks 27
ter, 27
ch, 27
y? 27
kill@@ 27
pec@@ 27
lif@@ 26
tivit@@ 26
all. 26
tog@@ 26
art 26
cy@@ 26
wee@@ 26
king 26
Go@@ 26
for 26
even 26
» 26
fast@@ 26
ers, 25
figure 25
is, 25
ation, 25
Ear@@ 25
or. 25
ur 25
air 25
appe@@ 25
rou@@ 25
land 24
predic@@ 24
mal 24
wn@@ 24
Y 23
ly 23
ter. 23
work. 23
side 23
ch. 23
wn 23
Som@@ 23
siasi 22
wo@@ 22
tor 22
ild@@ 22
ness 22
th 22
scre@@ 22
nec@@ 22
ty 22
ó 22
robo@@ 22
ic, 22
bit 22
my 21
ates 21
tou@@ 21
´@@ 21
chem@@ 21
ad. 21
sour@@ 21
all, 21
H 21
s: 21
ght 21
chang@@ 21
age, 21
ling 21
than 21
Let@@ 20
tech@@ 20
ish 20
ell 20
also 20
new@@ 19
trans@@ 19
solut@@ 19
ral 19
TE@@ 19
open 19
ax@@ 19
í 19
ful@@ 19
play 19
air@@ 19
men 19
age. 18
petro@@ 18
ws 18
oul@@ 18
) 18
ju@@ 18
sourc@@ 18
sive 18
them@@ 18
ad, 18
talk 18
cho@@ 18
ant 17
ts 17
hom@@ 17
anis@@ 17
ble 17
jo@@ 17
well 17
ich 17
work@@ 17
mach@@ 17
back@@ 17
th. 17
ation@@ 17
merci@@ 17
ber 17
ed, 16
W 16
tion 16
d-@@ 16
sion 16
»@@ 16
ic. 16
U.@@ 15
One 15
back 15
right, 15
int 15
American 15
ical 15
hy@@ 15
piutto@@ 15
ment 15
run@@ 15
Yea@@ 15
work, 15
right. 14
sic 14
red 14
ation. 14
st, 14
ist 14
flo@@ 14
insi@@ 14
ak 14
unti@@ 14
sho@@ 13
up, 13
jec@@ 13
him@@ 13
ones 13
ous@@ 13
ed. 13
s? 13
Z 13
ves 13
ms 13
*@@ 13
ement 13
ange 13
distri@@ 13
ut 13
á@@ 13
°@@ 12
over 12
ity, 12
y-@@ 12
high@@ 12
ion, 12
wh@@ 12
future 12
ext@@ 12
ff 12
avigli@@ 12
ings 12
my@@ 12
ren 12
any 12
ach 12
her 12
ool 12
foo@@ 12
F 11
cra@@ 11
loo@@ 11
pen 11
Amer@@ 11
thro@@ 11
wal@@ 11
ers. 11
egn@@ 11
show@@ 11
s." 11
coun@@ 11
ö@@ 11
vidu@@ 10
ory 10
day 10
e's 10
clo@@ 10
ust 10
ors 10
hand@@ 10
My 10
w. 10
ye@@ 10
Q 10
ity. 10
up. 10
tle 10
lot 9
way 9
J 9
ance, 9
ps 9
spac@@ 9
cover@@ 9
old 9
ligh@@ 9
hop@@ 9
ep 9
national 9
head@@ 9
des 9
ence, 9
fic 9
ward 9
+@@ 9
ect 9
ks, 9
ok 9
stem@@ 9
í@@ 9
blem@@ 9
ound 8
ow 8
face 8
ou 8
(@@ 8
ts, 8
ind 8
done 8
char@@ 8
hun@@ 8
now 8
fiel@@ 8
life 8
hal@@ 8
ris 8
time. 8
ks. 8
we 8
ics 8
#@@ 8
nex@@ 7
way, 7
well, 7
ful 7
=@@ 7
gy 7
commun@@ 7
under@@ 7
ins 7
time, 7
respon@@ 7
ds, 7
ally 7
hav@@ 7
alth 7
very 7
ther, 7
single 7
ly, 7
ken 7
econ@@ 7
wor@@ 7
book 7
stop 7
What 7
+ 7
food 7
cle@@ 7
rest 7
ion. 6
ns 6
t? 6
tic 6
Now 6
hard 6
ets 6
ning 6
down@@ 6
tion. 6
ence. 6
shar@@ 6
day. 6
res 6
/ 6
bill@@ 6
let 6
portun@@ 6
ys 6
see, 6
ain 6
she 6
ult 6
ering 6
problem 6
home 6
imag@@ 6
ular 6
´ 6
ple 6
high 5
ent, 5
hap@@ 5
ó@@ 5
able 5
ell, 5
tion@@ 5
act 5
view 5
out 5
j 5
give 5
ross 5
ever 5
All 5
can 5
ving 5
live 5
grand@@ 5
…@@ 5
ked 5
  4
tw@@ 4
way. 4
well@@ 4
ys, 4
well. 4
see 4
hou@@ 4
stem 4
‘@@ 4
full@@ 4
We 4
It's 4
head 4
* 4
ys. 4
pt 4
its 4
fish@@ 4
y's 4
ands 4
ts. 4
house 4
ble. 4
ty@@ 4
indi 4
hel@@ 4
made 4
ould 4
viron@@ 4
down 4
ü@@ 4
global 4
power@@ 4
own 4
als 4
ly. 4
lem 4
tions 3
coup@@ 3
call 3
look 3
ions 3
ting 3
ons 3
ations 3
room@@ 3
was@@ 3
ses 3
Just 3
you@@ 3
ent. 3
They 3
maj@@ 3
Dob@@ 3
“ 3
world@@ 3
ution 3
ven 3
country 3
ready 3
ds. 3
some 3
²@@ 3
entire 3
langu@@ 3
mov@@ 3
ated 3
ç@@ 3
cour@@ 3
shor@@ 3
read@@ 3
` 3
technolo@@ 3
vie@@ 3
led 3
love 3
big 3
United 3
driv@@ 3
rul@@ 3
call@@ 3
ú@@ 3
È@@ 3
how 3
gets 3
ath 3
otogra@@ 3
ying 3
ä@@ 3
point@@ 3
This 3
possible 3
lik@@ 3
etter 3
ution@@ 3
direc@@ 3
want 3
your 3
can't 3
bod@@ 3
ition 3
hor@@ 3
½ 2
¼ 2
off 2
reas@@ 2
not 2
got 2
sym@@ 2
€ 2
ching 2
point 2
beg@@ 2
sion, 2
Do 2
now, 2
know@@ 2
who@@ 2
will 2
model@@ 2
= 2
ies 2
ically 2
self 2
space 2
science 2
four 2
world 2
gave 2
told 2
story 2
û 2
city 2
try 2
And 2
@@@ 2
that 2
tion, 2
projec@@ 2
why 2
thou@@ 2
reali@@ 2
beli@@ 2
had 2
I'@@ 2
feel 2
eas@@ 2
ther. 2
led@@ 2
ous 2
works 2
actu@@ 2
Now, 2
order 2
kes 2
–@@ 2
if 2
@ 2
num@@ 2
gn 2
sing 2
piece 2
Not 2
² 2
ely, 2
ñ@@ 2
it? 2
bbiamo 2
ā@@ 2
ants 2
ents 2
hope 2
effec@@ 2
♪ 2
amount 2
day, 2
’s 1
've 1
part 1
ask 1
forc@@ 1
less 1
best 1
objec@@ 1
electr@@ 1
right? 1
system@@ 1
out, 1
word 1
goo@@ 1
lots 1
How 1
`@@ 1
amaz@@ 1
coming 1
away 1
human 1
ered 1
)@@ 1
notic@@ 1
life. 1
™ 1
him 1
etimes 1
anything 1
thing@@ 1
project 1
İ@@ 1
adv@@ 1
long 1
Here's 1
his 1
nostr@@ 1
® 1
architec@@ 1
don't 1
have 1
sh 1
good 1
ched 1
ampl@@ 1
body 1
child 1
ž@@ 1
ѐ 1
change 1
You 1
imagine 1
publi@@ 1
¼@@ 1
water 1
¥ 1
bly 1
ities 1
ely 1
certa@@ 1
sort 1
struc@@ 1
ten 1
communic@@ 1
which 1
â@@ 1
room 1
school 1
ê@@ 1
real 1
this 1
was 1
tty 1
etim@@ 1
© 1
amoun@@ 1
engine@@ 1
ment. 1
just 1
throu@@ 1
self, 1
when 1
you, 1
happ@@ 1
such 1
feel@@ 1
ations. 1
These 1
exper@@ 1
sion. 1
wom@@ 1
person 1
ś@@ 1
ć 1
buil@@ 1
ã@@ 1
front 1
other@@ 1
[ 1
read 1
˚ 1
£@@ 1
^@@ 1
build@@ 1
building 1
É@@ 1
Ç@@ 1
school@@ 1
ï@@ 1
know, 1
recogn@@ 1
out. 1
ample 1
once 1
brea@@ 1
play@@ 1
‘ 1
Here 1
It 1
♪@@ 1
ability 1
new 1
kids 1
ences 1
